<unk>	0
<s>	0
</s>	0
▁	-2.90498
?	-4.32005
.	-4.44817
이	-4.48396
도	-4.4854
는	-4.691
가	-4.70119
은	-4.77464
고	-4.89292
에	-5.14703
을	-5.22758
지	-5.26537
다	-5.36282
서	-5.3722
..	-5.45076
면	-5.51548
...	-5.52469
로	-5.56003
게	-5.57579
만	-5.64401
의	-5.66893
나	-5.73905
네	-5.78706
를	-5.7983
라	-5.82927
에서	-5.87016
,	-5.88053
▁ᄏᄏ	-5.90939
임	-5.91233
▁안	-5.95649
으로	-5.98568
들	-5.99756
▁그	-6.02881
노	-6.03667
냐	-6.07182
한	-6.09165
▁존나	-6.12435
▁다	-6.13074
▁ᄏᄏᄏ	-6.13802
▁저	-6.18758
기	-6.21919
▁아	-6.25775
자	-6.25836
야	-6.26228
는데	-6.28713
대	-6.29951
▁왜	-6.30855
▁진짜	-6.31798
~	-6.32414
▁더	-6.33179
▁이	-6.3748
하고	-6.3929
▁그냥	-6.39387
!	-6.42703
요	-6.42968
리	-6.44851
아	-6.49492
▁개	-6.50283
년	-6.51
▁잘	-6.51441
어	-6.51704
인데	-6.52083
시	-6.52167
▁못	-6.52692
▁말	-6.54013
▁나	-6.54579
함	-6.56128
해서	-6.59292
랑	-6.64597
하면	-6.66135
인	-6.66468
건	-6.6902
▁좀	-6.69996
▁ᄏᄏᄏᄏ	-6.70803
한테	-6.73846
▁너	-6.73847
들이	-6.74013
▁1	-6.75498
▁돈	-6.76088
▁근데	-6.76313
음	-6.76553
▁ᄆᄌᄒ	-6.76754
▁한	-6.78048
일	-6.78681
▁뭐	-6.79878
▁일베	-6.8125
하는	-6.81756
스	-6.82755
수	-6.83714
▁난	-6.86159
해	-6.86244
데	-6.86392
▁오	-6.87189
ᄏᄏ	-6.87963
??	-6.88056
까지	-6.91455
▁내	-6.92602
▁사	-6.92863
사	-6.9317
▁내가	-6.94513
상	-6.94521
▁ᄏ	-6.96025
▁니	-6.96146
라고	-6.96473
거	-6.97345
▁시발	-6.97683
때	-6.9782
이나	-6.98556
과	-6.99163
▁지금	-6.9962
니까	-7.00624
장	-7.01185
▁일	-7.01188
보다	-7.0363
니	-7.0445
▁ᄋᄇ	-7.05703
....	-7.05842
진	-7.06067
히	-7.06107
주	-7.06232
▁와	-7.06879
구	-7.06979
▁일본	-7.0819
ᄏᄏᄏ	-7.08399
으면	-7.08648
▁ᄅᄋ	-7.12097
▁거	-7.12264
부터	-7.12449
▁그런	-7.14757
▁수	-7.15223
▁ᄏᄏᄏᄏᄏ	-7.15763
들은	-7.16069
좀	-7.16533
더라	-7.17082
▁지	-7.17928
▁너무	-7.19528
▁그래	-7.19634
▁나도	-7.19764
▁2	-7.19923
할	-7.20751
▁이런	-7.20809
는거	-7.2181
보	-7.24125
차	-7.24333
▁전	-7.24907
당	-7.24917
안	-7.25524
치	-7.26036
▁3	-7.26754
▁그럼	-7.27078
~~	-7.28045
등급	-7.28124
▁니가	-7.28384
단	-7.2859
▁생각	-7.2912
▁아니	-7.29644
원	-7.29705
▁보	-7.29981
마	-7.30099
▁주	-7.30632
▁씨발	-7.3145
▁또	-7.33098
▁많이	-7.34082
까	-7.34749
러	-7.34994
걸	-7.35092
▁저런	-7.3535
살	-7.35918
▁여자	-7.36338
▁입	-7.37634
와	-7.37738
개	-7.37901
▁이제	-7.38421
긴	-7.38701
▁ᄋᄋ	-7.38777
▁병신	-7.38957
▁뭔	-7.40733
▁나라	-7.40808
질	-7.41242
▁조	-7.42536
▁같은	-7.43196
소	-7.43265
▁사람	-7.4359
▁무슨	-7.44618
▁하고	-7.45263
▁저거	-7.45298
여	-7.45511
정	-7.45576
우	-7.46778
▁우리	-7.47085
▁대	-7.4745
▁ᄏᄏᄏᄏᄏᄏ	-7.48026
해라	-7.48038
같은	-7.48241
새끼	-7.48661
▁남	-7.49413
/	-7.50872
하게	-7.51568
▁공	-7.52206
▁딱	-7.52291
▁남자	-7.52307
동	-7.52323
줄	-7.52958
▁유	-7.53168
▁7	-7.53201
신	-7.53751
세	-7.53922
▁하는	-7.53927
▁하	-7.54278
▁정	-7.54593
▁아니라	-7.54664
감	-7.5499
이라고	-7.55218
이네	-7.55915
듯	-7.55988
▁시	-7.56053
드	-7.57041
잖아	-7.57253
▁한국	-7.57256
간	-7.5737
이랑	-7.57626
▁다른	-7.57695
네요	-7.58606
점	-7.59422
물	-7.5944
▁어	-7.60101
던	-7.60409
▁애	-7.60853
내	-7.61263
ᄏ	-7.61633
▁중국	-7.61762
▁저렇게	-7.61795
이라	-7.62339
라는	-7.62413
형	-7.63156
▁아니냐	-7.63507
▁10	-7.63683
하다	-7.63844
피	-7.63961
조	-7.6483
성	-7.65067
▁살	-7.65506
▁요즘	-7.65642
비	-7.65662
▁알	-7.65753
▁ᄉᄇ	-7.66068
하노	-7.66184
화	-7.66257
▁그렇게	-7.66368
▁좆	-7.66614
▁그래서	-7.66759
▁말이	-7.67034
▁이거	-7.67046
▁이게	-7.67616
길	-7.67825
는게	-7.67885
▁욕	-7.67887
▁비	-7.68026
적으로	-7.68049
▁5	-7.69137
전	-7.6917
억	-7.69245
▁그거	-7.69517
중	-7.69887
보면	-7.70284
▁걍	-7.70446
▁사실	-7.70506
바	-7.70636
한다	-7.70938
새끼들	-7.70962
려	-7.70978
▁4	-7.70999
말	-7.71457
죠	-7.71993
▁신	-7.72163
인가	-7.72187
식	-7.72484
▁자	-7.72548
▁20	-7.7329
오	-7.7337
▁문제	-7.73553
위	-7.73892
▁제발	-7.73965
1	-7.7404
▁씹	-7.74072
▁있는	-7.74345
▁아직	-7.74371
제	-7.74395
면서	-7.74416
▁그리	-7.74528
▁이기	-7.74617
무	-7.74695
든	-7.75178
▁모르	-7.75422
▁하나	-7.75803
▁보고	-7.75885
▁그게	-7.75983
▁이미	-7.76266
같이	-7.76375
하	-7.76518
급	-7.76871
트	-7.76903
▁지랄	-7.77349
중에	-7.77731
▁댓글	-7.77797
미	-7.77799
처럼	-7.7797
엔	-7.78002
보고	-7.78023
▁차	-7.78046
▁할	-7.78124
▁누가	-7.78309
▁역	-7.79662
▁노	-7.79872
▁공부	-7.80033
▁보면	-7.80132
방	-7.80263
이냐	-7.80637
번	-7.8065
▁아님	-7.80924
충	-7.80991
▁ᄏᄏᄏᄏᄏᄏᄏ	-7.81418
▁것	-7.81768
유	-7.82362
▁마	-7.82396
)	-7.82701
넌	-7.82701
▁중	-7.82754
부	-7.82988
재	-7.83028
▁용접	-7.83426
이야	-7.83768
▁글	-7.84518
남	-7.85022
▁그러	-7.85355
라도	-7.85705
구나	-7.86136
▁하지	-7.86302
▁가	-7.86536
권	-7.86572
▁알고	-7.86612
▁대구	-7.87198
때문에	-7.87752
▁어떻게	-7.88202
선	-7.88304
놈	-7.88735
▁좋은	-7.88795
▁ᄏᄏᄏᄏᄏᄏᄏᄏ	-7.89593
▁쓰레기	-7.89649
▁머리	-7.89666
모	-7.89756
명	-7.89863
디	-7.89956
▁없음	-7.90033
님	-7.9051
!!	-7.90559
▁새끼	-7.90789
▁짤	-7.91135
▁많	-7.91327
이상	-7.91347
▁전라도	-7.91405
이지	-7.91554
▁인	-7.91784
▁집	-7.9196
▁동	-7.92119
력	-7.92232
▁제대로	-7.92682
타	-7.93057
▁미	-7.93076
다고	-7.93118
▁바로	-7.93261
▁김	-7.93622
▁무	-7.94016
발	-7.94021
▁같은데	-7.94124
다가	-7.94125
▁미국	-7.9421
▁응	-7.94216
▁ᅲᅲ	-7.94624
▁해	-7.95096
▁있다	-7.95178
▁때	-7.95273
던데	-7.95309
구만	-7.95344
▁쳐	-7.95418
이면	-7.95433
됨	-7.96126
▁어디	-7.96521
글	-7.96593
▁막	-7.96642
3	-7.96693
월	-7.96695
이다	-7.9715
하냐	-7.97311
▁불	-7.97439
▁함	-7.9762
▁대한민국	-7.97676
▁계속	-7.97732
적인	-7.97859
입니다	-7.97861
▁여	-7.97904
▁결혼	-7.98062
▁홍어	-7.98222
▁바	-7.9845
▁다음	-7.98547
▁본	-7.98793
s	-7.98855
▁기	-7.99433
▁물	-7.9965
▁아니고	-8.00035
집	-8.00195
이노	-8.00516
며	-8.00585
▁우	-8.00668
▁자기	-8.00836
하는거	-8.01548
판	-8.01833
속	-8.01941
???	-8.02135
림	-8.02252
▁절대	-8.02368
▁눈	-8.0241
토	-8.02667
새끼가	-8.03072
m	-8.03138
▁반	-8.03296
^^	-8.03397
가서	-8.03648
▁본인	-8.03995
!!!	-8.0403
▁ᄃᄃ	-8.04398
준	-8.04462
▁다시	-8.04611
대로	-8.05409
▁없	-8.0568
▁있음	-8.05871
생	-8.05924
▁9	-8.06258
▁틀딱	-8.06573
▁후	-8.06596
종	-8.06949
입	-8.06988
경	-8.07211
겠다	-8.07862
▁성	-8.08084
머	-8.08138
▁재	-8.08382
학	-8.08585
국	-8.08645
▁발	-8.08754
▁박	-8.08964
겠지	-8.09025
심	-8.09138
▁@	-8.09164
만원	-8.09214
▁뭘	-8.09278
꺼	-8.093
▁언제	-8.09312
▁솔직히	-8.09356
초	-8.09597
문	-8.09749
'	-8.09892
▁어디서	-8.09901
=	-8.09909
▁부	-8.10047
된	-8.10617
-	-8.10643
▁있는데	-8.1075
▁소리	-8.10921
▁쓰	-8.1093
루	-8.11072
져	-8.11244
래	-8.11287
▁매	-8.11573
건데	-8.12044
지는	-8.1284
▁따	-8.13064
창	-8.13229
▁예	-8.1338
▁야	-8.13756
▁큰	-8.13763
▁상	-8.14142
것도	-8.14483
▁파	-8.14501
▁미친	-8.14558
돈	-8.14709
카	-8.14843
용	-8.14865
▁개소리	-8.15283
인지	-8.15297
▁원래	-8.15405
▁꼭	-8.15619
▁ᄌᄂ	-8.15624
▁오늘	-8.15654
▁맞	-8.15656
▁정도	-8.15682
▁일단	-8.1584
병	-8.15894
▁암	-8.15973
짤	-8.16087
▁제일	-8.16089
▁사람이	-8.16133
▁제	-8.1619
▁병신아	-8.16305
먹고	-8.16614
▁기술	-8.16741
울	-8.17107
습니다	-8.17462
통	-8.17467
운	-8.17724
세요	-8.17797
짓	-8.17872
지만	-8.17996
▁새끼들	-8.18297
터	-8.18411
▁듯	-8.18611
▁하면	-8.18745
업	-8.19029
▁모	-8.19217
▁적	-8.19225
▁수준	-8.19348
▁동네	-8.1955
▁되	-8.20224
▁원	-8.20362
▁좋아	-8.20364
크	-8.2068
▁아무	-8.20906
2	-8.21195
산	-8.21206
▁나오	-8.21237
▁딸	-8.21258
겠네	-8.21364
후	-8.21987
▁감	-8.21995
▁얼마	-8.21998
▁문재인	-8.22083
▁모든	-8.2213
을듯	-8.22153
한거	-8.22244
▁위	-8.22345
실	-8.22423
벌	-8.22483
정도	-8.22576
버	-8.22856
란	-8.23122
▁정부	-8.23154
▁이상	-8.23157
▁강사	-8.232
▁경찰	-8.23278
쳐	-8.23351
▁정신	-8.23604
▁게이야	-8.23648
박	-8.23718
▁잡	-8.23748
▁없고	-8.23763
▁당	-8.24244
려고	-8.24245
지가	-8.24495
▁얼굴	-8.25215
갈	-8.26044
▁갈	-8.26185
▁양	-8.26375
▁뭐가	-8.26563
▁손	-8.26663
씨	-8.26795
야지	-8.27118
워	-8.27462
하면서	-8.27578
연	-8.2781
▁없는	-8.27919
프	-8.28007
▁않	-8.28135
▁있	-8.28432
석	-8.28544
▁강	-8.28591
케	-8.28895
봉	-8.28934
▁이해	-8.29019
색	-8.29042
▁연	-8.29113
튼	-8.2922
▁ᄂᄂ	-8.29226
체	-8.29293
▁몇	-8.29322
▁근거	-8.29476
▁소	-8.29544
▁전부	-8.2958
금	-8.29664
▁사람들	-8.29676
▁저러	-8.29783
했다	-8.29886
호	-8.30054
ᄏᄏᄏᄏ	-8.30099
▁ᄍᄍ	-8.30281
출	-8.3048
▁ᄏᄏᄏᄏᄏᄏᄏᄏᄏᄏ	-8.30528
그	-8.30534
했는데	-8.3056
배	-8.30566
▁통	-8.30665
▁게이	-8.30743
해도	-8.30812
각	-8.30845
겠냐	-8.31088
▁추	-8.31164
▁스	-8.31737
▁코	-8.31825
없는	-8.32224
공	-8.32541
▁6	-8.32975
복	-8.33013
▁나는	-8.33146
직	-8.33769
회	-8.33969
▁50	-8.3404
▁30	-8.34506
더	-8.34538
파	-8.34593
린	-8.35388
▁구라	-8.35458
▁친구	-8.35543
▁초	-8.35728
리고	-8.36006
분	-8.36048
아서	-8.36082
▁화	-8.36129
량	-8.36261
▁얘	-8.36304
;;	-8.36314
▁가능	-8.36598
승	-8.36715
▁ᄋᄌ	-8.36854
▁용접공	-8.36992
▁키	-8.37001
합니다	-8.37016
민	-8.37076
▁영어	-8.37084
▁코로나	-8.37173
▁칼	-8.37184
▁얼마나	-8.37304
▁이렇게	-8.37319
▁이유	-8.37342
▁똥	-8.37355
▁별	-8.37535
▁ᄏᄏᄏᄏᄏᄏᄏᄏᄏᄏᄏ	-8.37655
▁공무원	-8.37665
▁보지	-8.37771
절	-8.37817
▁거지	-8.37967
▁최	-8.38005
▁없어	-8.38042
▁빨갱이	-8.38071
키	-8.38092
▁배	-8.38127
▁인생	-8.38329
것	-8.38341
▁신고	-8.38493
▁없다	-8.38549
▁맞음	-8.38668
▁싸	-8.38718
되	-8.38742
▁맞다	-8.38776
ᅲ	-8.39009
▁타	-8.39347
르	-8.39532
:	-8.39636
▁그걸	-8.39659
등	-8.39673
생각	-8.3982
▁좋	-8.40031
▁영	-8.40332
에게	-8.40337
▁저게	-8.40436
▁애미	-8.40466
7	-8.405
어차	-8.4054
보니	-8.4059
▁ᄒᄒ	-8.41408
▁말고	-8.41813
▁인간	-8.42018
▁달	-8.42442
밖에	-8.43011
니다	-8.43378
▁고	-8.43522
▁생	-8.43594
애	-8.43644
▁지들	-8.43647
어서	-8.43867
▁진	-8.43884
▁피	-8.44064
▁=	-8.44191
▁건	-8.4422
▁점	-8.44727
양	-8.44814
격	-8.44861
ᅮ	-8.45131
▁높	-8.45158
값	-8.45249
쯤	-8.45249
▁열	-8.45438
▁진심	-8.4553
▁좌파	-8.46011
▁네	-8.46018
▁노가다	-8.46023
▁수학	-8.46035
▁이야기	-8.46153
▁세	-8.46292
▁국가	-8.46526
▁대가리	-8.46529
▁그렇	-8.46573
정말	-8.4683
>	-8.46854
거나	-8.4692
▁있어서	-8.46936
쪽	-8.46948
%	-8.47
▁간	-8.47114
▁볼	-8.47266
▁좆같은	-8.47308
g	-8.47314
▁맞는	-8.47463
계	-8.47471
교	-8.47572
해야	-8.47612
추	-8.47914
▁외	-8.47924
기는	-8.48051
▁사진	-8.48108
독	-8.48216
ᄏᄏᄏᄏᄏᄏᄏᄏ	-8.4832
포	-8.48348
▁참	-8.48365
가면	-8.48367
▁총	-8.48532
▁한번	-8.48642
코	-8.4871
▁이건	-8.48746
▁한다	-8.48773
하네	-8.48781
진짜	-8.49007
한번	-8.49275
▁실	-8.49304
▁예전	-8.4935
n	-8.49433
애들	-8.49557
레	-8.49559
천	-8.49684
▁천	-8.49853
ᄏᄏᄏᄏᄏᄏᄏᄏᄏᄏᄏᄏᄏᄏᄏ	-8.50028
▁저기	-8.50162
녀	-8.50249
▁들어	-8.50322
▁장	-8.50954
혀	-8.51071
겨	-8.51077
에선	-8.51198
~~~	-8.51199
▁찐따	-8.51264
▁해라	-8.51331
아님	-8.51443
치고	-8.5148
▁문	-8.51489
하기	-8.51669
쓰	-8.51896
이란	-8.52063
▁토	-8.5217
리가	-8.5218
들끼리	-8.52255
날	-8.52386
사람	-8.52567
▁술	-8.52689
▁이래	-8.52794
▁뒤	-8.53021
▁'	-8.53207
론	-8.53775
반	-8.53887
://	-8.54342
▁방송	-8.54351
놓고	-8.54537
해야지	-8.54565
▁정치	-8.54639
▁꿀	-8.54648
▁신천지	-8.5465
▁싶다	-8.54682
놈들	-8.54824
봐라	-8.54892
새끼야	-8.55137
▁빨리	-8.55152
▁누구	-8.55178
▁세계	-8.55232
▁군대	-8.55252
▁ᄃᄃᄃ	-8.55367
▁약	-8.55387
▁골	-8.55483
▁거기	-8.55487
법	-8.55556
사는	-8.55681
마다	-8.55993
▁저건	-8.56025
▁끝	-8.56492
작	-8.56501
▁게	-8.56573
▁아닌가	-8.56603
적	-8.56638
티	-8.56727
누	-8.56736
현	-8.56793
두	-8.5683
▁빨	-8.56871
▁백	-8.56877
째	-8.56895
▁쟤	-8.57067
따	-8.57085
강	-8.57203
침	-8.57234
한데	-8.57619
표	-8.57641
열	-8.57708
▁얘기	-8.57752
▁머	-8.57916
너	-8.57992
▁사는	-8.58037
되는	-8.58101
▁되지	-8.58138
봄	-8.58193
불	-8.5831
써	-8.58366
메	-8.58496
외	-8.58529
인거	-8.5871
더만	-8.5883
프로	-8.58992
▁일본이	-8.59707
▁여자들	-8.59765
▁나이	-8.59818
▁현실	-8.60215
하는데	-8.60378
▁직업	-8.60571
▁울	-8.6062
이고	-8.60877
군	-8.612
▁찍	-8.61291
▁순	-8.61501
능	-8.61696
▁팩트	-8.61724
▁짱깨	-8.61773
난	-8.61964
끼	-8.61985
▁카	-8.62197
▁아닌	-8.62221
▁하는게	-8.62306
온	-8.62348
지마라	-8.62599
▁날	-8.63081
한다고	-8.63226
환	-8.63372
행	-8.63473
▁목	-8.63732
▁허	-8.63873
겠노	-8.63877
▁걸	-8.63991
▁모르는	-8.63993
;	-8.64308
▁어떤	-8.6434
▁훨씬	-8.6434
땐	-8.6434
D	-8.6434
E	-8.6434
▁뒷	-8.6434
욱	-8.6434
▁저능아	-8.6434
▁사회주의	-8.64343
▁가져와	-8.64679
▁닭	-8.64681
▁http	-8.64681
▁되는	-8.64688
▁주작	-8.64715
▁꼴	-8.6488
▁같	-8.64916
▁오지	-8.65046
▁돈이	-8.65055
▁몸	-8.65252
버리	-8.65474
▁세상	-8.65476
▁있어	-8.65575
▁법	-8.65582
▁있네	-8.65768
▁동물	-8.65871
▁해야	-8.65886
있으면	-8.65966
▁편	-8.66047
하니까	-8.66049
는건	-8.66052
전에	-8.66169
▁만나	-8.66173
▁잡아	-8.66327
하지마라	-8.66412
▁된다	-8.6644
영	-8.66625
▁서울대	-8.66628
거지	-8.67228
▁ᄏᄏᄏᄏᄏᄏᄏᄏᄏᄏᄏᄏᄏᄏ	-8.67469
▁설	-8.676
▁있고	-8.67614
▁국민	-8.67625
▁분	-8.67735
▁슬	-8.67747
▁경	-8.67758
약	-8.67824
▁갑	-8.67948
나라	-8.67969
만큼	-8.68093
지말고	-8.68099
▁줄	-8.68112
▁되면	-8.68297
▁"	-8.68358
▁고기	-8.68562
예	-8.68615
페	-8.6865
찌	-8.68682
싸	-8.68847
▁밥	-8.68992
있는	-8.69054
잇	-8.69066
넘	-8.69094
희	-8.69182
퍼	-8.69338
▁(	-8.69618
왜	-8.6963
ᅲᅲ	-8.69698
편	-8.69751
있냐	-8.69819
(	-8.69865
없음	-8.69872
▁메	-8.69918
▁추천	-8.70017
ᄆᄌᄒ	-8.70063
▁놈들	-8.70165
놈이	-8.70243
자들	-8.70341
받고	-8.70443
▁금	-8.70725
등급이	-8.70865
▁아니지	-8.70894
t	-8.70985
▁쓰레기들	-8.7113
▁ᅲ	-8.71311
▁아이	-8.71351
▁ᄏᄏᄏᄏᄏᄏᄏᄏᄏ	-8.71562
▁단	-8.71597
▁구	-8.72141
었는데	-8.72238
▁했는데	-8.7228
하는게	-8.72361
▁이름	-8.72505
았	-8.72509
브	-8.72714
봐	-8.72766
할까	-8.72799
다니	-8.73029
▁잘못	-8.73081
▁서울	-8.73131
주면	-8.73143
▁반대	-8.73262
있노	-8.73329
▁죽	-8.7344
▁최고	-8.73758
락	-8.74323
거임	-8.74517
련	-8.74578
망	-8.75
곧	-8.75451
www	-8.75452
▁ᅳᅳ	-8.75454
co	-8.75459
be	-8.75459
▁해도	-8.75461
▁들어가	-8.75482
▁음식	-8.75502
▁성공	-8.75506
▁아가리	-8.75512
▁년	-8.7552
▁최소	-8.75541
▁수능	-8.75554
▁아닌데	-8.7558
▁현대	-8.75627
▁죄	-8.75631
▁선	-8.75714
▁에휴	-8.75827
▁열심히	-8.75835
순간	-8.75887
▁씨발년아	-8.75892
▁우리나라	-8.75913
▁맞지	-8.75976
▁삼성	-8.76007
▁개독	-8.761
봐도	-8.76228
▁차라	-8.7636
▁갓	-8.76447
▁까	-8.76471
▁물론	-8.76543
▁경우	-8.76564
▁이후	-8.76828
게이	-8.76829
하더라	-8.7693
▁받	-8.7708
▁길	-8.77101
▁잠	-8.77171
▁처	-8.77315
할때	-8.77358
▁북한	-8.77399
▁거의	-8.77474
▁애들이	-8.7757
▁그대로	-8.77735
▁일게이들	-8.77927
자체가	-8.77945
▁아니야	-8.78062
평	-8.78097
▁이걸	-8.78299
▁뭐냐	-8.78343
▁산	-8.78533
줘	-8.78581
▁ᄇᄃᄇᄃ	-8.7859
관	-8.78793
▁아주	-8.78856
▁올	-8.78988
증	-8.79025
▁ᄏᄏᄏᄏᄏᄏᄏᄏᄏᄏᄏᄏᄏ	-8.79076
군요	-8.79187
▁있지	-8.79246
록	-8.79275
▁시간	-8.79393
▁들	-8.79426
▁개인	-8.79441
▁영상	-8.79464
▁인기	-8.79496
▁다들	-8.79515
▁안전	-8.79642
지도	-8.79643
▁넣	-8.7983
▁있는거	-8.79926
▁나와	-8.8007
▁사람도	-8.80086
역	-8.80123
▁심	-8.80161
▁베	-8.80257
가능한	-8.80427
▁기사	-8.80857
밥	-8.80938
설	-8.81089
▁사회	-8.81092
베	-8.81142
수준	-8.81256
갑	-8.81362
▁과	-8.81452
d	-8.81479
▁븅신	-8.81484
▁안하는	-8.81631
빨	-8.81685
나옴	-8.81776
▁있냐	-8.81862
악	-8.81863
▁벌	-8.82048
조건	-8.82115
담	-8.82158
덕	-8.82165
일베	-8.82273
ᄋᄇ	-8.82562
드립	-8.82565
이니	-8.82625
▁하는데	-8.82872
주고	-8.83118
▁:	-8.83578
▁방	-8.83718
▁못하는	-8.83747
하지	-8.84191
▁8	-8.8481
▁너도	-8.84837
많은	-8.85017
▁버	-8.85114
잡	-8.85151
▁간다	-8.85179
름	-8.85504
▁망	-8.85674
ᄏᄏᄏᄏᄏᄏ	-8.85832
▁용	-8.85862
▁넘	-8.86035
▁옆에	-8.8607
움	-8.86298
매	-8.86606
▁써	-8.8663
▁형	-8.86665
▁내용	-8.86911
짐	-8.86924
▁놀	-8.86931
▁좃	-8.87018
▁털	-8.87109
~~~~	-8.87304
했음	-8.87553
알	-8.87639
▁페미	-8.87851
v	-8.87871
달	-8.87932
힌	-8.87951
ᅵ	-8.87951
▁섹스	-8.87951
도대체	-8.87955
▁아닐까	-8.87965
▁평생	-8.87967
▁재미	-8.88001
▁보빨	-8.88033
▁대체	-8.88082
▁지능	-8.881
▁고소	-8.88148
▁12	-8.88197
▁사기	-8.88222
▁정상	-8.88305
▁분탕	-8.88323
자기	-8.88356
▁안된다	-8.88375
▁이국종	-8.88391
▁닉	-8.88392
▁결국	-8.88406
▁김씨	-8.88449
▁선거	-8.88603
▁철	-8.88668
으	-8.88798
▁별로	-8.88807
▁시작	-8.88821
▁대학	-8.89142
▁완전	-8.89147
▁혼자	-8.89238
▁홍	-8.89408
▁돌	-8.89447
▁그때	-8.89709
▁나가	-8.89798
▁뜻	-8.89932
▁새끼들이	-8.89946
▁정보	-8.89984
▁뭐야	-8.89999
ᄏᄏᄏᄏᄏᄏᄏᄏᄏᄏᄏᄏᄏᄏᄏᄏ	-8.90156
▁안가	-8.9023
없	-8.90307
야됨	-8.9063
봐서	-8.9068
▁특	-8.90683
▁땅	-8.90721
▁하여	-8.90907
적이	-8.90984
▁존	-8.91063
▁가지고	-8.91069
▁보기	-8.91175
자나	-8.91213
▁위에	-8.91249
▁인정	-8.91305
되냐	-8.91334
▁포	-8.91455
▁만	-8.91504
▁옆	-8.91537
0	-8.91595
▁저런거	-8.91598
▁인증	-8.91669
▁받아	-8.91712
.....	-8.91891
▁처음	-8.92
된다	-8.92033
▁거야	-8.9226
였음	-8.92305
▁어제	-8.92435
▁투	-8.92568
▁두	-8.92622
▁웃기네	-8.92778
을때	-8.9288
▁같다	-8.9295
▁현	-8.93039
처	-8.93096
▁ᄌ	-8.93116
는거임	-8.93317
▁으	-8.93589
있음	-8.93725
▁싶	-8.9384
5	-8.93859
▁복	-8.93973
투	-8.94011
습	-8.94056
▁집에	-8.94335
합	-8.94387
▁아니다	-8.9439
센	-8.94522
했으니	-8.94573
견	-8.9468
곤	-8.94915
블	-8.94937
술	-8.94944
빠	-8.95066
▁빠	-8.95172
책	-8.95244
기사	-8.95268
새끼들이	-8.95517
될	-8.95587
인줄	-8.95686
N	-8.95831
태	-8.9586
좆	-8.9586
놔	-8.9587
검	-8.9595
▁각	-8.9612
T	-8.96165
백	-8.96174
북	-8.96239
목	-8.96248
말이	-8.96285
▁김치	-8.96358
앞	-8.96401
▁있었	-8.96465
하자	-8.9658
골	-8.96605
줬	-8.96628
"	-8.96646
총	-8.96687
틀딱	-8.96705
년아	-8.96712
응	-8.96733
는거지	-8.96791
▁해야지	-8.96795
거다	-8.96846
아니냐	-8.96875
그냥	-8.96887
릴	-8.96929
▁등	-8.96987
머리	-8.97189
19	-8.973
▁100	-8.97693
▁답	-8.97847
▁애들	-8.97871
하긴	-8.97983
▁팔	-8.98018
▁질	-8.98084
린다	-8.98118
▁주제	-8.98157
▁하는거	-8.98492
▁아니면	-8.98591
▁번	-8.98948
▁종	-8.99113
▁다니	-8.99276
났	-8.99354
먹어	-8.99394
▁노예	-8.99453
▁명	-8.99479
사가	-8.99699
▁좋다	-8.99701
어야지	-8.9974
a	-8.99812
해줘	-9.00334
으니	-9.00437
▁작	-9.00519
ᄏᄏᄏᄏᄏᄏᄏ	-9.00574
▁맛	-9.00876
▁호주	-9.00884
▁살아	-9.00898
▁자살	-9.00926
하나	-9.01043
사진	-9.01242
동안	-9.01279
▁됐	-9.01286
▁조작	-9.01383
쟁이	-9.01418
킹	-9.01455
ᄏᄏᄏᄏᄏᄏᄏᄏᄏᄏ	-9.01588
▁쓸	-9.01661
느	-9.01926
송	-9.02027
걸로	-9.02042
ᄒ	-9.02135
류	-9.02141
▁걱정	-9.0215
k	-9.02184
멘	-9.02187
씩	-9.02228
▁유튜브	-9.02237
▁젊은	-9.02237
믿고	-9.02237
굳	-9.02237
랩	-9.02237
▁공산주의	-9.02237
▁러시아	-9.02237
▁필리핀	-9.02237
▁ᄊᄉᄐᄎ	-9.0224
▁대부분	-9.02244
▁부모님	-9.02246
▁맨날	-9.02255
▁저지랄	-9.02259
▁떠나	-9.02262
▁일반	-9.02265
vs	-9.02279
▁세금	-9.02291
▁진실	-9.02301
▁뒤질	-9.02303
▁은행	-9.02306
▁24	-9.02319
▁첨	-9.02333
▁틀니	-9.02334
▁신경	-9.02369
참	-9.02459
▁이번	-9.02475
▁여기서	-9.02507
▁ᄇᄉ	-9.02585
▁지디	-9.0259
▁둘	-9.02593
4	-9.02676
▁ᄌᄌᄇ	-9.02728
▁둘다	-9.02744
▁첫	-9.02746
▁민주당	-9.02747
쳐먹고	-9.02788
▁40	-9.02803
▁연봉	-9.02803
▁재산	-9.02821
▁벌레들	-9.02887
년이	-9.02897
▁자식	-9.02921
▁반일	-9.03144
▁없으면	-9.03175
▁무시	-9.03178
▁저래	-9.03311
▁나온	-9.03405
e	-9.03407
▁나랑	-9.03433
▁접	-9.03449
▁치	-9.03503
▁주인	-9.03519
길래	-9.03521
▁얼	-9.03551
▁ᄍ	-9.03623
▁+	-9.03631
▁젤	-9.03631
▁깨	-9.03651
▁ᄉᄀ	-9.03759
▁나베	-9.03822
일듯	-9.03855
▁예상	-9.03883
▁저때	-9.03956
▁주식	-9.04094
▁못함	-9.041
는거야	-9.04188
▁빨아	-9.04366
▁보수	-9.04384
▁있나	-9.04409
년제	-9.04429
년들	-9.04578
▁주변	-9.04582
축	-9.04669
▁국	-9.0467
▁목사	-9.04736
▁많다	-9.048
▁의사	-9.04893
을까	-9.04906
손	-9.05006
▁틀	-9.05043
자는	-9.05058
한거임	-9.05095
▁헬	-9.05271
▁온	-9.0539
▁외모	-9.05438
하다가	-9.0552
▁기능	-9.05533
겁니다	-9.05533
테	-9.05543
▁알바	-9.05664
▁데	-9.05717
▁조국	-9.05724
▁먹는	-9.05857
끼리	-9.05957
▁알았	-9.06013
랑께	-9.0607
▁나오는	-9.06336
즈	-9.06381
▁안됨	-9.06423
▁돌아가	-9.0661
▁시장	-9.06691
전형	-9.06696
시다	-9.067
봐야	-9.06756
▁봐	-9.06782
▁그렇지	-9.06809
▁것은	-9.06915
▁뭔가	-9.07198
라서	-9.07338
y	-9.074
▁여자가	-9.07489
ᄏᄏᄏᄏᄏ	-9.07783
▁찍어	-9.08012
▁말하는거	-9.08176
▁없어서	-9.08414
▁치료	-9.08475
,,	-9.08615
▁군	-9.09314
▁고백	-9.09368
청	-9.09582
▁웃기	-9.10012
▁노력	-9.10094
클	-9.10256
▁안되	-9.10304
▁80	-9.10309
▁죽어	-9.10392
빵	-9.10914
취	-9.11016
었다	-9.11318
더니	-9.11376
결	-9.11383
▁푸	-9.11514
▁붙	-9.11541
왕	-9.11626
▁16	-9.11638
9	-9.11852
거냐	-9.11855
▁호	-9.12456
규	-9.1249
탈	-9.12628
김	-9.12752
폭	-9.12758
냄새	-9.12838
들아	-9.12843
많이	-9.12901
ᄂ	-9.12926
교회	-9.1305
▁보내	-9.13089
먼	-9.13115
▁승	-9.13165
▁직	-9.13183
슬	-9.13288
볼	-9.13345
욕	-9.13347
o	-9.1337
없어서	-9.13537
영상	-9.13676
0%	-9.13779
▁잘하는	-9.13797
존나	-9.13821
▁이새끼	-9.13842
▁생각하	-9.13978
히려	-9.13995
▁있다는	-9.14028
놨	-9.14071
▁씨	-9.14138
니깐	-9.14264
▁돌아	-9.14797
▁모르겠	-9.15024
거고	-9.15049
하세요	-9.15186
보지	-9.15259
▁변	-9.15582
기를	-9.15595
▁저정도	-9.15768
졌	-9.15837
시간	-9.15989
▁당연	-9.16287
순	-9.16295
국민	-9.16451
익	-9.16476
▁병신들	-9.16611
하신	-9.16883
▁인간들	-9.1701
▁먹고	-9.17088
병신	-9.17342
▁이러	-9.17602
▁당하	-9.17623
▁수준이	-9.17664
ᄃ	-9.17792
아니라	-9.17808
▁시켜	-9.17814
햇	-9.1806
▁병신새끼	-9.18256
새기	-9.18347
옴	-9.18351
▁엄청	-9.18466
▁기분	-9.18473
율	-9.18549
야함	-9.18678
▁처벌	-9.18761
슨	-9.18783
b	-9.18822
나보네	-9.18891
Y	-9.18892
되면	-9.18893
youtu	-9.18903
▁문재앙	-9.18903
▁옛날	-9.18903
▁좌빨	-9.18903
▁이탈리아	-9.18904
앗	-9.18904
▁마누라	-9.18904
▁인터넷	-9.18904
▁네다음	-9.18906
▁박근혜	-9.18907
▁아파트	-9.18908
▁먼저	-9.18914
▁무죄	-9.18924
▁기본	-9.18933
▁증거	-9.18947
▁월급	-9.1895
▁어휴	-9.1896
▁미개한	-9.1897
▁관심	-9.18976
▁의미	-9.18983
▁지랄하네	-9.18993
▁그럴	-9.19027
▁억지	-9.19032
▁성형	-9.19078
▁당신	-9.1908
▁사망	-9.19106
▁좋겠다	-9.19123
봉주	-9.19127
▁축구	-9.19129
▁투자	-9.19185
▁않음	-9.19219
▁키워	-9.1925
거든	-9.19335
▁많음	-9.19347
▁되어	-9.19367
▁벌레	-9.19387
▁뇌	-9.19449
까진	-9.19494
▁이민	-9.19508
▁베충이	-9.19513
▁혹	-9.19514
▁쉽	-9.19514
▁확률	-9.19516
▁조선족	-9.19516
▁주예지	-9.19516
▁청소	-9.19527
▁궁금	-9.19535
▁지옥	-9.19551
ᄏᄏᄏᄏᄏᄏᄏᄏᄏᄏᄏᄏᄏ	-9.19568
▁국내	-9.19571
▁실제로	-9.19575
▁우파	-9.1959
▁또라이	-9.19595
인듯	-9.19599
▁구원	-9.1963
▁글쓴	-9.19648
▁지원	-9.19676
▁걸레	-9.19695
▁맞는데	-9.19717
▁적어	-9.19758
수록	-9.19762
▁사형	-9.19805
색기	-9.19829
▁미친새끼	-9.19955
▁ᄏᄏᄏᄏᄏᄏᄏᄏᄏᄏᄏᄏᄏᄏᄏ	-9.19988
▁광고	-9.20004
▁검사	-9.20006
달라	-9.20033
▁뒤지	-9.20048
▁레	-9.20082
▁만들어	-9.20091
▁배우	-9.20102
h	-9.20283
▁영화	-9.20307
▁없냐	-9.20313
▁옷	-9.20525
▁개꿀	-9.20599
▁병원	-9.2061
▁대기업	-9.20615
이라면	-9.20734
▁귀	-9.20827
▁빡	-9.20885
▁본다	-9.21236
▁말하는	-9.21263
▁맞아	-9.21276
▁삼	-9.21281
▁불법	-9.21317
▁아재	-9.21388
▁미안	-9.21447
▁생각이	-9.21456
▁없는데	-9.2152
▁광주	-9.21532
가지	-9.21572
▁만든	-9.21597
▁ᄉᄐᄎ	-9.21648
▁쇼	-9.21671
▁논리	-9.21718
있다	-9.21753
탄	-9.21794
▁충	-9.2198
렙	-9.22091
▁되는데	-9.22118
▁벌어	-9.22155
▁출	-9.22183
▁압	-9.22521
▁조금	-9.22615
▁꼬	-9.2264
리면	-9.22758
▁맨	-9.22761
▁내려	-9.22775
▁특징	-9.22939
▁노무	-9.22954
충들	-9.2304
8	-9.23081
▁지지	-9.23212
▁걸리	-9.23532
▁이런거	-9.23557
▁관리	-9.23786
▁하던데	-9.23995
부가	-9.24065
했다면	-9.24212
▁p	-9.24283
였다	-9.24494
▁개새끼들	-9.24772
▁어이	-9.24821
▁가세연	-9.24825
수가	-9.24842
▁트	-9.24869
▁먼	-9.25036
▁없지	-9.25047
▁탈	-9.25066
▁합	-9.25074
같은데	-9.25514
기에	-9.25694
돌	-9.25712
▁그런거	-9.25813
▁돈을	-9.25818
▁개병신	-9.25953
▁비하	-9.26047
▁a	-9.26153
이참	-9.26245
저	-9.26249
간다	-9.26346
들을	-9.26461
하겠지	-9.2675
▁담	-9.26875
▁안함	-9.26957
ᄀ	-9.27033
▁드립	-9.27338
▁덕	-9.27363
놈은	-9.27485
▁나가는	-9.27629
년전	-9.27957
▁하더라	-9.28209
▁당연한	-9.28216
▁백인	-9.28358
▁그만	-9.28462
했지	-9.28722
언	-9.28755
▁상대	-9.2876
▁이미지	-9.28944
▁듣	-9.28966
▁해석	-9.29019
치면	-9.29084
▁나왔	-9.29105
▁거리	-9.29272
다는	-9.29305
같은거	-9.29438
▁개씹	-9.29658
자리	-9.2971
▁봄	-9.29771
▁개돼지	-9.29938
쓰는	-9.30092
r	-9.30101
▁개새끼	-9.3018
▁사업	-9.30216
▁놈	-9.3034
ᄏᄏᄏᄏᄏᄏᄏᄏᄏᄏᄏᄏᄏᄏ	-9.30382
▁아니었	-9.30435
내는	-9.30534
같아	-9.30598
씨발	-9.30783
새	-9.30817
▁하네	-9.30827
딱	-9.31124
▁생각해	-9.31237
이니까	-9.31293
하는건	-9.31307
휴	-9.31368
보소	-9.31449
척	-9.31454
소리	-9.31475
아니면	-9.3161
범	-9.31623
C	-9.31733
▁사랑	-9.31811
▁일베충	-9.31832
▁거임	-9.31852
▁일이	-9.31853
치는	-9.31948
민족	-9.31999
용접	-9.32037
▁복싱	-9.3204
▁아줌마	-9.32092
그래	-9.32155
p	-9.32318
폰	-9.32355
밤	-9.32526
빈	-9.32526
할듯	-9.32533
▁선생	-9.32575
▁까는	-9.32744
존	-9.32751
▁크	-9.32755
마니	-9.32804
았네	-9.329
삼	-9.32946
K	-9.32988
업체	-9.32989
S	-9.33003
B	-9.33005
꼬	-9.33061
▁힘	-9.33123
끝	-9.33288
가능	-9.33455
▁먹어	-9.33792
아니다	-9.33824
▁체	-9.33998
나서	-9.34057
▁인간이	-9.341
엇	-9.34154
시발	-9.34155
▁이것	-9.34499
하던데	-9.34603
생각하면	-9.34628
여자	-9.34633
▁그러니	-9.34677
▁빡대가리	-9.34685
▁시대	-9.34713
▁떡	-9.34721
른	-9.34771
▁비례	-9.34786
낸	-9.34813
지않냐	-9.34826
보임	-9.349
관리	-9.35039
줘라	-9.35073
어요	-9.351
동네	-9.35134
들한테	-9.35291
▁가족	-9.35435
▁하면서	-9.35586
▁뉴스	-9.35672
▁좋아하는	-9.3582
냥이	-9.35984
▁비슷	-9.35997
▁이지랄	-9.36267
타고	-9.36282
▁일게이	-9.36317
▁묻	-9.36414
▁비슷하	-9.36453
수도	-9.3653
▁c	-9.3654
▁어쩌	-9.36677
▁한국인	-9.36793
셔	-9.36861
있는거	-9.37072
▁몇년	-9.37163
▁죽여	-9.37175
▁괜찮	-9.37274
▁몰려	-9.37702
▁명예	-9.37739
......	-9.37994
지마	-9.38037
ᄐᄎ	-9.38151
▁범죄	-9.38204
갤	-9.38371
▁필요없	-9.38425
▁^^	-9.38462
▁진정	-9.38513
당한	-9.38524
▁어느	-9.38533
▁깔	-9.38546
▁조선	-9.3856
겟	-9.38577
▁그랬	-9.38712
효	-9.38737
▁해결	-9.38753
텐	-9.38774
꿈	-9.38879
V	-9.38884
듬	-9.38893
젠	-9.38894
빙	-9.38902
떼	-9.38902
션	-9.38903
섯	-9.38903
셈	-9.38903
칭	-9.38903
▁보험	-9.38903
▁선관위	-9.38903
▁어렵	-9.38903
▁이딴	-9.38903
▁저딴	-9.38903
▁좌좀	-9.38903
룩	-9.38903
릉	-9.38903
▁나쁜	-9.38904
▁캡쳐	-9.38904
▁펭수	-9.38904
렁	-9.38904
릭	-9.38904
큐	-9.38904
R	-9.38904
W	-9.38904
▁편의점	-9.38904
▁자한당	-9.38905
새꺄	-9.38906
▁멍청한	-9.38906
▁이석기	-9.38906
▁리얼	-9.38907
▁트럭	-9.38908
▁데려다	-9.38908
▁꾸준	-9.38915
▁ᄌᄅ	-9.38916
▁사기꾼	-9.38916
▁그나마	-9.38917
▁남자들	-9.38918
▁김대중	-9.3892
▁어딜	-9.38926
▁부캐	-9.38933
▁내친구	-9.38943
▁발언	-9.38944
▁처녀	-9.38948
국뽕	-9.38951
▁평소	-9.38956
▁개념	-9.38962
▁200	-9.38965
▁나쁘	-9.38966
▁니애미	-9.38969
▁마찬가지	-9.38973
▁장모	-9.3898
▁두번	-9.38981
▁말씀	-9.38994
▁시골	-9.39007
▁도움	-9.39013
▁블라	-9.39018
▁양심	-9.3902
▁몇명	-9.39038
▁칭찬	-9.39085
▁설명	-9.39128
▁한달	-9.3914
▁ᄇᄉ아	-9.39141
▁조용	-9.39142
▁가격	-9.39161
▁너희	-9.39164
▁상황에서	-9.39184
▁보여주	-9.39185
▁여러	-9.39202
해줌	-9.39226
레알	-9.39232
▁일해	-9.39238
▁남성	-9.39267
였는데	-9.39272
▁미쳤	-9.39299
▁자신	-9.39299
▁꺼져	-9.39309
해주	-9.39328
시키	-9.39338
▁출신	-9.39338
▁짜	-9.3934
▁책임지	-9.39353
▁들고	-9.39356
짓거리	-9.39359
어느정도	-9.39371
▁망상	-9.39416
▁받으	-9.39419
▁일부	-9.3942
▁지방	-9.39485
▁자주	-9.3954
▁마음	-9.39577
▁월	-9.39606
▁ᄊ	-9.39639
▁빅	-9.39663
▁대통령	-9.39664
▁요새	-9.39671
▁대단한	-9.39673
▁맞는말	-9.39676
▁비타민	-9.39676
▁확실	-9.39689
▁쳐맞	-9.39721
▁중국인	-9.39724
시오	-9.39725
나라에서	-9.39726
▁양반	-9.39729
▁끝나	-9.39731
▁부들부들	-9.39732
▁했다는	-9.39739
▁할배	-9.39796
▁칠	-9.39807
▁18	-9.39822
▁상상	-9.39823
▁배당	-9.39874
▁똑같이	-9.39898
▁이번에	-9.39911
팔이	-9.39916
▁확인	-9.39925
▁중간	-9.39928
세상	-9.39954
▁돌려	-9.39985
▁ᄒ	-9.39989
▁아빠	-9.39989
▁그런데	-9.4002
▁상관없	-9.40072
▁칼로	-9.40095
▁됨	-9.40114
▁빼	-9.40152
▁표	-9.4016
▁가치	-9.40162
▁니미	-9.40172
▁알아서	-9.40208
아침에	-9.40221
▁교	-9.40234
▁500	-9.40235
▁풀	-9.403
▁날라	-9.40342
▁독일	-9.4043
했다고	-9.40456
▁여론	-9.40464
▁따로	-9.40472
▁중딩	-9.40505
▁거기에	-9.40528
받는게	-9.40544
란다	-9.40556
제가	-9.40561
통수	-9.4058
▁마라	-9.40616
주세요	-9.40661
▁동의	-9.40751
▁보는	-9.40752
▁사과	-9.40875
▁많아	-9.40877
▁대한	-9.40915
리는	-9.40924
▁생긴	-9.4095
▁고양이	-9.40951
▁대화	-9.41028
▁애들은	-9.41041
▁진중권	-9.41056
▁커	-9.41126
▁세상이	-9.412
▁좋음	-9.41335
▁무식한	-9.41341
▁이기야	-9.41364
▁없다고	-9.41365
▁꼴리	-9.41376
▁자연	-9.41426
▁웃	-9.4143
▁같음	-9.41461
▁가능하다	-9.41485
▁부자	-9.41539
▁안되는	-9.41549
▁권	-9.41678
▁11	-9.41702
되는거	-9.41708
▁맘	-9.41835
▁맛있	-9.41982
▁ᄌᄒ	-9.41998
ᄒᄒᄒ	-9.42022
▁이쁘다	-9.42086
건가	-9.42191
▁다르	-9.4227
▁가능성	-9.42276
▁의료	-9.42291
60	-9.42312
▁항	-9.42328
▁비교	-9.42328
▁궁	-9.42336
▁ᅳ	-9.42352
▁뜨	-9.42356
▁잔	-9.42364
▁육	-9.42376
▁준비	-9.42397
▁따지	-9.42419
▁사라	-9.42423
▁나대	-9.42439
앞으로	-9.42469
▁보이	-9.42695
▁먹으면	-9.42708
▁이해가	-9.4271
▁예쁜	-9.42758
▁생활	-9.4282
하겠네	-9.42923
▁과거	-9.43015
만들고	-9.43149
▁잘했다	-9.43261
▁도망	-9.43306
▁부산	-9.43328
원짜리	-9.4335
만한	-9.43359
▁보자	-9.43451
던가	-9.4359
▁받았	-9.43592
십	-9.43692
▁ᄆ	-9.43724
못해	-9.4378
▁플	-9.43869
▁찾	-9.43925
이에요	-9.44085
든가	-9.44087
▁통계	-9.44161
▁북	-9.44165
못	-9.44277
▁비슷한	-9.44485
▁살기	-9.44647
▁쓰고	-9.44693
▁정당	-9.44957
따면	-9.45031
▁B	-9.4517
▁S	-9.45172
▁K	-9.45176
인정	-9.45212
▁척	-9.45243
▁중고	-9.45264
▁없었	-9.45292
▁살았	-9.45305
된거	-9.4539
스트	-9.45489
지요	-9.4557
▁아들	-9.45574
한건	-9.45671
▁ᄒᄃᄃ	-9.45742
하는거지	-9.45794
▁하지만	-9.45824
▁보소	-9.45866
주제에	-9.45889
▁살면	-9.46025
▁찾아	-9.46182
였	-9.46198
▁신기	-9.46221
▁새끼들은	-9.46485
▁교회	-9.46641
일에	-9.46758
▁있을	-9.46842
했으면	-9.47302
▁검	-9.47423
▁니들	-9.47607
▁책	-9.4763
▁김무성	-9.47674
일까	-9.47692
▁취	-9.47964
▁한거	-9.48038
라니까	-9.48083
시켜	-9.48153
기가	-9.48383
는다	-9.48425
이건	-9.4852
▁상황	-9.48614
▁사이	-9.48709
▁0	-9.48965
새끼는	-9.49313
▁짱깨들	-9.49368
▁하노	-9.49725
▁자리	-9.49734
들어	-9.49773
▁재밌	-9.49821
키는	-9.49857
먹	-9.49861
▁가르	-9.49886
▁새끼야	-9.50014
야한다	-9.50059
하며	-9.50093
▁먹	-9.50379
▁올린	-9.50416
스터	-9.50475
친거	-9.50629
▁환	-9.50651
▁집이	-9.50825
▁퍼	-9.50991
받	-9.5103
▁넣어	-9.51125
데이	-9.51277
잘	-9.51542
6	-9.51568
▁낫다	-9.51605
난거	-9.51754
▁얼굴이	-9.51951
▁그것	-9.5204
▁아다	-9.52112
▁독	-9.52279
▁빠는	-9.5231
으니까	-9.52463
▁요	-9.52482
트리	-9.5255
▁프로	-9.52578
자고	-9.52657
▁주차	-9.5274
ᄇ	-9.52942
던거	-9.52968
▁ᄀ	-9.5313
▁팔아	-9.53166
보는게	-9.53287
▁사람들이	-9.53506
▁쪽	-9.53528
▁노인	-9.53747
께	-9.54054
▁살려	-9.54058
▁잇	-9.54111
▁말하	-9.54662
기하고	-9.54892
▁알겠	-9.55135
안됨	-9.55388
텐데	-9.55434
있는데	-9.55506
▁하시	-9.55512
이라는	-9.55602
▁90	-9.55783
는지	-9.55799
답	-9.55879
팔	-9.55974
▁앞에	-9.56012
▁현실이	-9.56092
아주	-9.5619
린거	-9.56241
플	-9.56275
꾸	-9.56522
▁창	-9.56581
아이	-9.56703
하러	-9.56731
폐	-9.5676
곡	-9.56768
콘	-9.56768
벨	-9.56769
꼴	-9.56773
됐	-9.56774
시장	-9.56976
마크	-9.57047
근	-9.57057
▁밑	-9.57154
패	-9.57295
르면	-9.57312
조사	-9.57415
틀	-9.57415
c	-9.57437
굴	-9.57479
풍	-9.57535
▁선동	-9.57539
짜	-9.57557
지고	-9.57586
관계	-9.57612
늘	-9.5764
착	-9.57647
문화	-9.57707
보다는	-9.57712
흥	-9.57722
품	-9.57755
A	-9.57789
캐	-9.57804
컷	-9.57807
쥐	-9.57838
▁밀	-9.57865
엄마	-9.5787
커	-9.57897
생활	-9.57906
고싶다	-9.57954
할텐데	-9.57972
있으니	-9.57994
ᄆ	-9.58006
▁될	-9.58035
에도	-9.58063
맨	-9.58116
있지	-9.58131
헬	-9.58188
특	-9.58211
땅	-9.58241
잠	-9.58252
ᄃᄃ	-9.5828
알바	-9.5829
이렇게	-9.5831
짱깨	-9.58337
▁떨어	-9.58355
곳	-9.58361
▁틀딱들	-9.58433
걍	-9.58478
또	-9.58503
들만	-9.58596
근데	-9.58657
급이	-9.58689
팅	-9.58726
새끼들아	-9.58733
대는	-9.58757
기능	-9.58764
▁부분	-9.5879
▁드	-9.58849
사실	-9.58902
▁하시는	-9.5911
이잖아	-9.59132
하여	-9.59201
다른	-9.59223
▁타고	-9.59483
▁수도	-9.59484
런	-9.59524
짜리	-9.59612
냥	-9.59673
개월	-9.59695
안함	-9.59726
냐고	-9.59773
거야	-9.59828
▁욕하는	-9.59831
노무	-9.59968
????	-9.59969
▁사건	-9.60007
▁유행	-9.60029
렸	-9.60064
넣어	-9.60102
좋은	-9.60184
오면	-9.60217
▁관련	-9.60221
보니까	-9.60324
정도면	-9.60334
하지만	-9.60415
대구	-9.60589
웠	-9.60796
▁뿌	-9.6115
▁어케	-9.61184
가지고	-9.61276
u	-9.61511
▁꺼	-9.61519
게이야	-9.6153
▁저새끼	-9.61606
▁절	-9.6163
인건	-9.61682
압	-9.61827
▁왔	-9.61878
료	-9.61911
▁안좋아	-9.62084
▁강간	-9.62113
▁똑같	-9.62236
▁용접이	-9.62297
버는	-9.62408
ᄅ	-9.6241
▁몰라	-9.62562
▁힘들	-9.62574
▁뛰어	-9.62639
킨	-9.62761
랄	-9.62876
▁뒤져	-9.6289
남자	-9.63006
▁가는	-9.63146
땜	-9.63216
▁부럽	-9.63298
▁썩	-9.63309
같노	-9.63312
▁판	-9.63323
징	-9.63385
끄	-9.63436
▁능력	-9.63473
▁스타	-9.63639
은거	-9.63695
탁	-9.6377
득	-9.6377
삭	-9.63774
▁시스템	-9.63777
짝	-9.63788
찰	-9.6382
쥬	-9.63846
▁확	-9.63862
렉	-9.63872
꾼	-9.63888
츠	-9.63891
균	-9.63896
ᄑ	-9.63903
O	-9.63903
몬	-9.63903
q	-9.63903
▁갖고	-9.63903
▁국회의원	-9.63903
▁뒈져	-9.63903
▁빨갱아	-9.63903
▁숏패딩	-9.63903
▁썅년	-9.63903
▁유럽	-9.63903
▁저녁	-9.63903
▁컨셉	-9.63903
겐	-9.63903
꽈	-9.63903
눌	-9.63903
둬	-9.63903
뜬	-9.63903
띠	-9.63903
렴	-9.63903
묵	-9.63903
봣	-9.63903
졋	-9.63903
컴	-9.63903
U	-9.63904
ᆞ	-9.63904
▁마지막	-9.63904
▁외계인	-9.63904
▁헤어	-9.63904
렀	-9.63904
륜	-9.63904
엿	-9.63904
힐	-9.63904
L	-9.63904
▁느꼈	-9.63904
벙	-9.63904
▁정신병자	-9.63904
_	-9.63904
▁2~3	-9.63904
▁가끔	-9.63904
view	-9.63905
▁뒤집어	-9.63905
▁외노자	-9.63905
▁바퀴벌레	-9.63905
▁조만간	-9.63905
▁ᄂᄃᄒ	-9.63906
▁스스로	-9.63906
▁이만희	-9.63906
▁프레임	-9.63906
▁베트남	-9.63906
▁키보드	-9.63907
▁리뷰	-9.63908
▁아버지	-9.63908
▁독립	-9.6391
▁평균	-9.63911
분위기	-9.63911
▁민폐	-9.63912
▁희망	-9.63913
▁강간범	-9.63914
▁참고로	-9.63914
▁농사	-9.63915
▁깝치	-9.63915
▁블박	-9.63916
▁예쁘	-9.63919
함부로	-9.6392
▁김제동	-9.63921
▁희생	-9.63922
▁가입일	-9.63922
샤부	-9.63923
▁행위	-9.63926
▁떡밥	-9.63926
▁느껴지네요	-9.63932
▁아무런	-9.63936
▁우덜	-9.63936
투브	-9.6394
▁단순	-9.63941
▁질투	-9.63941
▁이명박	-9.63943
▁박사모	-9.63945
갔노	-9.6395
▁오픈	-9.63956
▁은근	-9.63957
▁경영	-9.63961
▁백퍼	-9.63961
▁정의당	-9.63964
▁소송	-9.63964
▁몇달	-9.63965
▁부류	-9.63972
▁대변	-9.63973
▁연락	-9.63978
▁존경	-9.6398
▁틀린말	-9.63981
▁외교	-9.63984
시리즈	-9.63993
▁몇천	-9.63993
국이	-9.63996
▁조언	-9.64005
▁오랜만에	-9.64009
▁기름	-9.64019
▁자동	-9.6402
▁잘못이지	-9.64025
▁화산	-9.64026
▁있으니까	-9.64028
잔아	-9.64031
▁구글	-9.64035
▁남아있	-9.64044
따위	-9.64046
▁어쩌라고	-9.64049
▁대검	-9.64055
▁해봐라	-9.64058
▁방구석	-9.64058
▁두개	-9.6406
▁드러	-9.64081
▁강남	-9.64082
▁전설	-9.64094
▁사재기	-9.64103
▁이럴	-9.64104
있고	-9.64115
▁있겠냐	-9.64118
▁성님	-9.64121
▁응디	-9.64137
▁고추	-9.64138
▁싸우	-9.64139
▁졸라	-9.6414
▁사태	-9.64141
▁하려	-9.6416
▁시체	-9.64174
▁상식	-9.64175
성향	-9.64189
▁대출	-9.64195
▁신발	-9.64196
▁빵	-9.64197
였어	-9.64215
▁고통	-9.64219
겟노	-9.64237
▁문과	-9.64256
버림	-9.64268
학과	-9.64278
▁판사	-9.64326
▁없네요	-9.64327
▁높음	-9.64332
▁정치인	-9.64332
▁17	-9.64347
▁바보	-9.64355
▁한녀	-9.64359
▁수입	-9.64361
▁싹	-9.64375
버릴	-9.64383
▁있었는데	-9.64392
?!?	-9.64406
▁아베	-9.64423
▁싹다	-9.64432
▁믿음이	-9.64453
▁안될	-9.64499
▁전화	-9.64503
▁애비	-9.64512
▁해주	-9.64524
곳이	-9.64532
▁눈치	-9.64551
▁크게	-9.64639
▁전문	-9.64681
▁제시	-9.64698
▁물건	-9.64698
하는구나	-9.64698
▁오바	-9.64725
▁산업	-9.64728
▁넘어	-9.64729
▁저분	-9.6474
▁짱	-9.64753
▁올림픽	-9.64784
▁어쩔	-9.64803
진거	-9.64805
▁쓰는거	-9.64806
~!!	-9.64826
▁허위	-9.64837
▁빼고	-9.6486
▁깜	-9.64891
▁z	-9.64894
년생	-9.64895
▁땡	-9.64902
▁링크	-9.64906
▁솔	-9.64906
▁재앙이	-9.64906
▁굿	-9.64906
▁넓	-9.64906
▁쌀	-9.64906
▁쌓	-9.64906
▁버닝썬	-9.64906
▁빙신아	-9.64906
▁원숭이	-9.64906
▁가즈아	-9.64907
▁탑	-9.64908
▁진지하	-9.64918
▁논란	-9.64918
▁휘	-9.6492
▁여친	-9.64925
▁학교	-9.64936
▁센스	-9.64939
▁부탁	-9.6494
성이	-9.64943
▁종교	-9.64949
▁투표	-9.64952
▁보여	-9.64955
▁한가인	-9.64956
▁좀비	-9.64957
▁한명	-9.64982
▁전기차	-9.64985
▁좆병신	-9.64989
▁많은데	-9.64996
▁현재	-9.64996
시민	-9.64999
▁모르겠다	-9.65003
▁빠바	-9.65006
▁택시	-9.65018
▁이상한	-9.6502
▁뭔데	-9.65041
▁어찌	-9.65049
▁티나	-9.65068
▁안돼	-9.65074
▁메시	-9.65086
▁나처럼	-9.65096
형님	-9.65097
▁하루	-9.6519
▁발전	-9.652
▁무기	-9.65219
▁누나	-9.65224
▁죽음	-9.65237
▁모여	-9.65243
▁이쁘네	-9.65263
▁이러고	-9.65265
▁털어	-9.65282
▁없노	-9.65295
▁븅신아	-9.65297
▁백마	-9.65332
▁의사들	-9.65357
ᄋᄇᄅ	-9.65362
▁처맞	-9.65463
▁빡치	-9.65515
▁지진	-9.65521
▁서로	-9.65535
▁중국이	-9.65539
▁줄서	-9.65561
세끼들	-9.65596
▁병신새끼들	-9.65641
해봤	-9.65647
하니	-9.65702
▁장면	-9.6571
▁수사	-9.65722
년차	-9.6574
▁받는	-9.65782
▁내일	-9.65886
▁감성	-9.65911
▁후장	-9.65914
▁필요한	-9.65937
▁자원	-9.65949
▁날아	-9.66006
▁돼지	-9.6615
▁미친놈	-9.66263
되니	-9.66273
▁수요	-9.66282
▁바꿔	-9.66311
개표	-9.66345
▁넘어가	-9.6638
없다	-9.66384
▁버티	-9.66392
▁밑에	-9.66448
▁무게	-9.6645
겠죠	-9.66458
▁라고	-9.66548
▁대본이	-9.66563
▁지역	-9.6658
▁힘든	-9.66583
▁좋아했	-9.66643
▁스포츠	-9.66657
▁ᅮᅮ	-9.66658
▁J	-9.66658
▁자빠졌네	-9.6666
▁빤스	-9.66661
▁혜	-9.66665
▁적자	-9.66682
▁티비	-9.66688
▁경북	-9.66701
▁번호	-9.6671
▁등등	-9.66711
보여서	-9.66723
▁회사	-9.66724
▁거라고	-9.66777
▁기계	-9.66789
와서	-9.6679
리스	-9.66812
▁ᄒᄒᄒ	-9.66826
▁직장	-9.66829
▁생기	-9.66892
▁한국에서	-9.66909
버리고	-9.66945
▁23	-9.67118
▁아마	-9.67166
수밖에	-9.67178
▁제사	-9.67203
보는	-9.6721
▁결혼하기	-9.67288
▁않을	-9.67333
▁광	-9.67477
▁혼	-9.67505
파이	-9.67529
잉	-9.67533
▁알아	-9.67624
▁게임	-9.67717
▁애기	-9.67719
거면	-9.67735
▁않은	-9.67812
▁말아	-9.67891
일지	-9.67941
새기들	-9.67989
▁않는	-9.68053
▁채	-9.68075
▁있긴	-9.68118
▁ᄋ	-9.68205
▁처리	-9.68216
▁싼	-9.68418
▁쉬	-9.6845
▁극	-9.68452
▁P	-9.68486
▁쿠	-9.68488
변	-9.68529
▁전기	-9.68565
공대	-9.68566
▁일뽕	-9.68567
▁덜	-9.68582
▁ᄉ	-9.68627
▁25	-9.6863
되었	-9.68685
▁올려	-9.68688
▁답이	-9.6872
해주는	-9.68771
주시	-9.69038
▁많지	-9.69105
▁여기	-9.69237
▁받을	-9.69245
격이	-9.69246
ᄒᄒ	-9.69437
▁봤는데	-9.6945
▁비리	-9.69621
▁저리	-9.6972
했	-9.6977
▁품	-9.69813
▁못하고	-9.69828
▁도망가	-9.69999
▁가게	-9.70037
▁캐	-9.70068
다리	-9.70069
▁있다고	-9.7011
▁따라	-9.70125
▁행동	-9.70148
▁돈내	-9.70156
쓴다	-9.70156
▁언	-9.70186
▁쥐	-9.70276
▁있으니	-9.70331
▁A	-9.70348
▁컷	-9.7036
▁흥	-9.70368
▁늘	-9.70375
▁엄마	-9.70392
이었	-9.70584
대도	-9.70618
▁영역이	-9.70673
했냐	-9.70735
▁살고	-9.70769
▁했으면	-9.71092
들도	-9.7128
▁악	-9.71291
▁보니까	-9.71519
▁상황이	-9.71616
▁들으	-9.71705
을텐데	-9.71771
▁없애	-9.72128
▁언론	-9.72235
해지	-9.72257
▁박사	-9.72258
▁개나	-9.72268
▁착	-9.72274
▁해외	-9.72279
▁업체	-9.72284
▁봤	-9.72425
▁폭	-9.72486
▁처먹	-9.72501
돌이	-9.72613
▁아노	-9.72708
▁인도	-9.73
▁이런걸	-9.73045
▁않아	-9.73075
하는거임	-9.73338
▁우리가	-9.73365
쁜데	-9.73531
져있	-9.73537
▁자지	-9.73564
▁선생이	-9.73729
▁냄새	-9.73737
▁익	-9.73768
▁태	-9.73775
드리	-9.73803
을수도	-9.74029
경제	-9.74155
▁말로	-9.74176
▁청	-9.74198
▁운영	-9.74201
하지말고	-9.74296
▁보다	-9.74554
▁w	-9.74691
▁아프	-9.74699
되겠네	-9.74821
▁연구	-9.74915
▁뿐	-9.75347
▁안할	-9.7548
드려	-9.75636
장에	-9.76123
▁T	-9.76196
▁뽑	-9.76208
▁앞	-9.76234
원이	-9.76261
▁19	-9.76368
▁평	-9.76374
▁노동	-9.76445
▁누	-9.76484
까봐	-9.76657
▁잘한다	-9.76738
만세	-9.7674
▁개돼지들	-9.76833
l	-9.76875
▁관	-9.77391
하려고	-9.77519
▁안쓰	-9.77803
로는	-9.77824
▁??	-9.77902
뿐	-9.78156
의사	-9.78188
▁거냐	-9.7825
봤는데	-9.78382
▁상당	-9.78471
장이	-9.78763
년에	-9.78836
▁어디가	-9.78895
었	-9.7891
기억	-9.78911
말대로	-9.79062
▁몰랐	-9.79637
▁대기	-9.79685
하던	-9.79784
▁그러면	-9.7996
▁3.	-9.8014
▁저놈	-9.80238
▁지나	-9.80268
▁관상	-9.80371
되지	-9.80525
▁할때	-9.80599
▁급	-9.80807
▁건강하	-9.80862
▁위험	-9.8096
▁좆같	-9.81075
▁2.	-9.81262
▁계	-9.81381
▁만들	-9.81562
▁놔	-9.81728
먹는	-9.81815
는것	-9.82296
▁이하	-9.82371
천이	-9.82568
▁미친년	-9.82592
거는	-9.82596
▁그렇다	-9.82709
자가	-9.82754
올	-9.82935
▁놈이	-9.8294
쳐야지	-9.83157
▁해줘	-9.8318
▁잘먹	-9.83306
▁듣는	-9.8338
▁생각해보	-9.83464
10	-9.83605
~~~~~	-9.83608
했던	-9.83687
버려	-9.84061
문이	-9.84324
▁민	-9.8439
▁올리는	-9.84464
▁했어	-9.84531
▁밖	-9.84594
점이	-9.846
▁곳	-9.84682
준다	-9.84756
▁한데	-9.84998
먹으면	-9.85671
▁찾아보	-9.85718
000	-9.85914
했어	-9.8598
맘	-9.86189
▁가지	-9.86297
▁표정	-9.8639
▁처음이	-9.86485
▁일상	-9.86636
봤자	-9.86689
일로	-9.86783
▁못하면	-9.8694
받아야	-9.86988
▁놓	-9.87402
▁과학	-9.87546
▁ᄂ	-9.87739
홀	-9.87746
뭐	-9.87836
봤다	-9.87845
나도	-9.87887
않냐	-9.879
본	-9.88036
▁나서	-9.88189
▁남친	-9.88237
▁앉아	-9.88257
혼	-9.88526
?????	-9.88774
새낀	-9.88947
빡	-9.89049
그네	-9.8911
▁쓴	-9.89286
▁ᄒᄒᄒᄒ	-9.8932
덜	-9.89534
딩	-9.89612
딸	-9.89646
닥	-9.89784
옥	-9.89848
광	-9.89869
▁주고	-9.89981
널	-9.90043
▁거르	-9.90117
픽	-9.9013
협	-9.90156
괴	-9.90159
짧	-9.90164
M	-9.90164
ᅩ	-9.90164
앱	-9.90164
춤	-9.90164
F	-9.90164
▁공장	-9.90164
읽	-9.90224
▁전에	-9.90335
▁다니는	-9.9048
푸	-9.90487
내림	-9.90509
▁병신같	-9.90572
▁연예인	-9.90579
렙이	-9.90622
채	-9.90636
애미	-9.90671
필	-9.90678
▁시키는	-9.90711
70	-9.90741
답게	-9.90749
김치	-9.90765
▁대답	-9.90798
웃	-9.9081
극	-9.90832
육	-9.90835
별	-9.9088
아니고	-9.9088
꿀잼	-9.90885
없어	-9.90885
엘	-9.90886
ᄉ	-9.90891
했네	-9.90931
바닥	-9.90934
마스크	-9.90952
ᄋ	-9.90999
아깝	-9.91027
려라	-9.91087
요금	-9.91094
털	-9.91114
인것	-9.91124
쉬	-9.91138
궁	-9.9116
여행	-9.91173
잔	-9.91176
쿠	-9.91183
P	-9.91188
싼	-9.91189
항	-9.91254
홍	-9.91272
쓸	-9.91275
일뽕	-9.9131
풀	-9.91339
ᅳ	-9.91344
뜨	-9.91354
듣	-9.91406
롭	-9.91407
▁자국	-9.91433
ᄌ	-9.91436
력이	-9.91436
귀	-9.91446
쇼	-9.9146
죄	-9.9149
▁이쁘	-9.91491
ᄉᄐᄎ	-9.91518
둘	-9.91528
뜻	-9.91528
보내	-9.91531
논리	-9.91571
됐다	-9.91573
애들도	-9.91597
철	-9.91597
50	-9.91601
주변	-9.91648
잘못	-9.91661
아닌가	-9.91686
빨갱이	-9.91716
▁못할	-9.91719
ᄍᄍ	-9.91739
아니야	-9.91773
눈	-9.91774
부산	-9.91795
쓰레기	-9.91798
어떻게	-9.91802
▁업	-9.91804
그대로	-9.91821
그렇게	-9.91826
ᄉᄇ	-9.91834
교육	-9.9185
ᄋᄋ	-9.91854
의료	-9.9191
있어서	-9.91913
었나	-9.91926
부대	-9.91928
따라	-9.92017
올리	-9.92041
새끼들은	-9.9205
저거	-9.92062
▁갔	-9.92078
난다	-9.92118
줌	-9.92136
62	-9.9214
▁글이	-9.92291
25	-9.92331
다녀	-9.92384
겠	-9.92422
곳은	-9.92477
대가리	-9.92597
중대	-9.92841
정은	-9.92861
산다	-9.92944
든데	-9.92979
▁차이	-9.93002
▁잘사	-9.93004
동생	-9.93015
▁병	-9.9314
위에	-9.9317
▁없을	-9.9321
거라	-9.93231
한가	-9.93675
명이	-9.93675
주는	-9.93753
▁필요	-9.93805
여기	-9.9389
▁뒤에	-9.93937
잖어	-9.94069
같네	-9.94075
▁분들	-9.94087
준비	-9.94284
▁학	-9.94308
떠	-9.94454
화가	-9.94468
었어	-9.94561
조가	-9.94611
나온	-9.94684
▁다리	-9.94704
빌	-9.9471
▁많은	-9.94774
리는거	-9.94797
지금	-9.94932
집단	-9.94987
셨	-9.95068
▁루	-9.95117
▁이자	-9.95167
놈들이	-9.95254
되고	-9.95264
는거냐	-9.95265
것들	-9.95297
을거	-9.95305
사기	-9.95428
▁불쌍	-9.9546
▁짱개	-9.9547
사람이	-9.95634
쳤	-9.95828
버스	-9.95874
▁선택	-9.95932
▁가만히	-9.96022
▁정의	-9.96208
▁먹었	-9.96296
엽	-9.96389
럴	-9.9642
립	-9.96574
▁튀어나	-9.9663
향	-9.96672
노이기	-9.96744
▁170	-9.96763
경기	-9.9679
뽕	-9.96797
핑	-9.96839
▁씨벌	-9.96839
▁쑤셔	-9.96857
▁정리	-9.96859
▁하는짓	-9.9686
▁창녀	-9.96867
▁어떻	-9.96871
▁썰	-9.96892
▁닮	-9.96893
었음	-9.96911
▁퇴직	-9.96933
▁따뜻한	-9.96939
나와	-9.96964
켰	-9.96992
▁책임	-9.9702
염	-9.97023
▁유지	-9.97041
뉴	-9.97045
씀	-9.97076
▁누군	-9.97129
령	-9.9713
하시는	-9.97144
▁깨끗한	-9.97167
탕	-9.97178
링	-9.97189
겁	-9.97193
엉	-9.97205
il	-9.97215
▁ᄃᄃᄃᄃᄃ	-9.97226
훠	-9.97229
쇄	-9.97231
랜드	-9.97235
헌	-9.97236
넷	-9.97236
춘	-9.97237
긋	-9.97237
랙	-9.97237
앰	-9.97237
H	-9.97237
▁ᄋᄉᄋ	-9.97237
▁경험	-9.97237
▁굶어	-9.97237
▁그딴거	-9.97237
▁그랜저	-9.97237
▁농어촌	-9.97237
▁도쿄	-9.97237
▁뚜껑	-9.97237
▁발기부전	-9.97237
▁백분위	-9.97237
▁베들베들	-9.97237
▁벤치	-9.97237
▁봅니다	-9.97237
▁새벽	-9.97237
▁숫자	-9.97237
▁시베리아	-9.97237
▁시험	-9.97237
▁싫은	-9.97237
▁옳은	-9.97237
▁완료	-9.97237
▁젖탱이	-9.97237
▁조샌징	-9.97237
▁좌우	-9.97237
▁찢어	-9.97237
▁컴퓨터	-9.97237
▁텔레그램	-9.97237
▁트럼프	-9.97237
▁프로그램	-9.97237
▁할아버지	-9.97237
▁횡단보도	-9.97237
▁훔형	-9.97237
꼼	-9.97237
냈	-9.97237
넹	-9.97237
녕	-9.97237
덤	-9.97237
됌	-9.97237
롱	-9.97237
릇	-9.97237
몽	-9.97237
반일반북	-9.97237
밭	-9.97237
밸	-9.97237
샵	-9.97237
슘	-9.97237
실험	-9.97237
쌤	-9.97237
얌	-9.97237
읍	-9.97237
즉시	-9.97237
팜	-9.97237
하찮	-9.97237
혔	-9.97237
▁끊어	-9.97237
▁도저히	-9.97237
▁뚜렛	-9.97237
▁멀었	-9.97237
▁몰래	-9.97237
▁변호사	-9.97237
▁신뢰	-9.97237
▁업그레이드	-9.97237
▁전쟁	-9.97237
▁테슬라	-9.97237
꽉	-9.97237
닝	-9.97237
융	-9.97237
태평양	-9.97237
▁열등감	-9.97237
벗	-9.97237
▁훈련	-9.97237
유투버	-9.97237
▁좌측	-9.97237
▁최상위	-9.97237
▁사명감	-9.97237
x	-9.97237
▁영양제	-9.97237
▁바이러스	-9.97237
▁샤워	-9.97238
▁비행기	-9.97238
▁헌법	-9.97238
▁지하철	-9.97238
▁안정권	-9.97238
ch	-9.97239
▁쪽바리	-9.97239
▁느낀	-9.97239
▁늘어나	-9.97239
▁래미안	-9.97239
▁씹새야	-9.9724
▁기분나빠	-9.9724
확진자	-9.9724
▁송파	-9.97241
▁꼬라지	-9.97241
▁느그	-9.97241
▁싼타페	-9.97241
▁한남들	-9.97241
실화냐	-9.97241
▁화이팅	-9.97242
▁천주교	-9.97242
챙겨	-9.97242
▁국가기관	-9.97243
▁나경원	-9.97243
구더기	-9.97243
새퀴	-9.97243
▁와이프	-9.97244
▁소방관	-9.97244
▁담배	-9.97245
▁혐오	-9.97245
▁혐한	-9.97245
▁스팀	-9.97246
▁조선시대	-9.97246
▁극단적	-9.97247
▁슨상님	-9.97247
▁가망없	-9.97247
인갑네	-9.97247
▁은퇴	-9.97249
▁크루즈	-9.9725
▁삼촌	-9.97251
▁수도권에	-9.97251
도못함	-9.97251
▁자퇴	-9.97253
▁물타기	-9.97254
귀여워	-9.97254
▁네이버	-9.97254
▁적당히	-9.97255
▁깜빵	-9.97255
▁핑크당	-9.97255
▁닥쳐	-9.97256
▁몇몇	-9.97256
▁힘듬	-9.97256
▁겁나	-9.97257
▁질본	-9.97258
▁2.5	-9.97258
▁빨아먹	-9.9726
▁발끈	-9.97261
▁586	-9.97261
▁눈깔	-9.97262
▁일주일	-9.97262
▁존버하	-9.97263
▁치킨	-9.97264
▁만족	-9.97264
▁구별	-9.97264
▁영향	-9.97265
▁타령	-9.97266
▁회색	-9.97268
▁이루어	-9.97274
▁165	-9.97275
▁들어갔	-9.97275
▁파혼	-9.97276
마사지	-9.97277
▁최근	-9.97277
▁세탁	-9.97278
▁개뿔	-9.97278
▁느낌이	-9.97278
▁유래했	-9.97278
▁숙소	-9.97279
▁자막	-9.9728
▁ᄍᄍᄍ	-9.97283
▁엄청난	-9.97284
▁소득	-9.97285
▁걸러야	-9.97286
▁취직	-9.97287
▁ᄌᄌᄇᄆᄌᄒ	-9.97288
색깔	-9.97288
▁어허	-9.97289
▁글쓴게이	-9.9729
▁사장님	-9.9729
▁취업	-9.97292
▁전세계	-9.97293
▁회식	-9.97293
▁담배피	-9.97293
▁업글	-9.97294
▁있을꺼	-9.97295
▁공지영	-9.97295
▁안먹었	-9.97296
▁ᄌ망	-9.97297
▁변절	-9.97297
~20	-9.97302
천원	-9.97304
▁안물어	-9.97304
▁방생하	-9.97305
▁업무	-9.97308
▁빨간	-9.97309
▁풀어주	-9.97313
▁방법	-9.97319
▁뿐이지	-9.9732
▁변경	-9.9732
▁독재	-9.97322
▁살짝	-9.97322
▁싸움	-9.97323
▁민간	-9.97324
▁확신	-9.97325
▁목표	-9.97326
▁현금	-9.97328
무새	-9.97332
▁못생긴	-9.97336
▁실행	-9.97336
▁정답	-9.97337
▁제목	-9.97338
▁어플	-9.97342
▁창조	-9.97344
▁글올리	-9.97345
▁모름	-9.97346
▁아이린	-9.97353
▁메갈	-9.97353
특별	-9.97353
▁니뽕	-9.97356
▁앞차	-9.97358
▁삼전	-9.97358
▁여태	-9.97361
▁취소	-9.97362
▁필수	-9.97363
▁오염	-9.97363
가보네	-9.97364
멘트	-9.97365
센트	-9.97374
▁들어갈	-9.97374
▁빡세	-9.97376
알못	-9.97377
▁정치병	-9.97377
▁26	-9.97381
▁모두	-9.97381
▁손절	-9.97391
▁관장	-9.97391
▁미련	-9.97395
▁만난	-9.97397
답니다	-9.97397
▁가짜	-9.97398
▁영업	-9.97401
▁퍼오는	-9.97405
아이디어	-9.97406
▁홍성	-9.97406
▁여군	-9.97407
▁커엽	-9.97408
▁조폭	-9.97409
▁배운	-9.9741
▁분명	-9.9741
▁다음날	-9.97411
▁어쩔수	-9.97412
딩이	-9.97412
▁하느	-9.97417
▁형제	-9.97422
▁빨간색	-9.97423
▁제공	-9.97429
머가리	-9.97435
▁망신	-9.97439
치즈	-9.97439
▁1000	-9.97442
▁있을까	-9.97444
레오	-9.97445
▁직원	-9.97447
▁천재	-9.97452
게이트	-9.97454
▁떡상	-9.97457
▁임마	-9.97475
▁낮	-9.97479
▁남편	-9.9748
▁피해자	-9.97481
▁피부	-9.97483
▁간부	-9.97484
▁알려주	-9.97495
▁구성	-9.975
▁정확하	-9.97503
▁계시	-9.97504
▁수술	-9.97516
지휘	-9.97525
▁몇억	-9.9753
▁유교	-9.97532
긴한데	-9.97533
▁진급	-9.97534
그리	-9.97534
▁모유	-9.97535
▁신호	-9.97536
된것	-9.97541
▁성립	-9.97543
▁안심하	-9.97545
▁당선	-9.97547
▁아니겠노	-9.97547
▁등장	-9.97566
▁우주	-9.97566
▁소중	-9.97567
▁한국에	-9.97573
▁장애인	-9.97582
▁어린	-9.9759
▁전두	-9.97591
▁ᅲᅲᅲᅲ	-9.97595
▁수영	-9.97607
▁일반인	-9.97624
▁영원	-9.97637
▁있었음	-9.97638
▁감동	-9.97646
▁끼어	-9.9765
▁시벌	-9.97654
▁자동으로	-9.97655
▁잘해주	-9.97657
해봐	-9.97657
▁없잖아	-9.97671
▁통까	-9.97674
▁이해해라	-9.97675
▁쪽팔	-9.97684
▁소개	-9.9769
▁여성	-9.97693
▁정신차	-9.97715
▁발정	-9.97717
▁우리집	-9.97718
▁바꿔라	-9.97719
▁홍어새끼	-9.97721
▁좋네요	-9.97722
▁말투	-9.97722
▁사법	-9.97736
빠짐	-9.9774
▁뭘까	-9.97743
▁비번	-9.97746
치매	-9.97757
▁아니겠지	-9.97773
▁비위	-9.97782
버렸네	-9.97786
▁150	-9.97786
▁빈다	-9.97788
버려라	-9.97791
할거임	-9.97797
▁앜ᄏᄏᄏᄏ	-9.97799
▁학부	-9.97803
줘야	-9.97814
▁힘들다고	-9.97833
▁조선에서	-9.97841
▁생각나네	-9.97842
▁한강	-9.97852
통합	-9.97854
머니	-9.97856
▁디지	-9.97877
▁어려	-9.97904
연수	-9.97909
▁고급	-9.97937
▁망치	-9.97938
bc	-9.97945
짠하다	-9.97959
렸다	-9.97977
▁짠	-9.97978
따리	-9.97984
▁명기	-9.97984
▁누워	-9.97989
▁잘하네	-9.97992
▁해당	-9.97995
한데요	-9.98003
▁좆까	-9.98024
▁창의	-9.98027
▁눈물이	-9.98038
돌림	-9.98045
▁오래	-9.98052
정이	-9.9806
▁잘나가	-9.98068
▁어우	-9.98084
지잡대	-9.981
▁가능함	-9.98101
▁답이다	-9.98109
생겨	-9.98112
종일	-9.98119
▁못배	-9.98122
끼들	-9.98141
▁대신	-9.98145
▁아끼	-9.98166
▁씨를	-9.98186
▁사장이	-9.98189
땜에	-9.98201
명이다	-9.98202
▁개보지	-9.98207
처먹	-9.98216
패스	-9.98222
▁가오	-9.98239
▁저사람	-9.98255
▁낮은	-9.98258
▁좋은데	-9.98277
▁사유	-9.98293
▁걔	-9.98297
▁있네요	-9.98312
▁실력	-9.98318
400	-9.98322
▁사라지	-9.98323
문열	-9.98352
▁클론	-9.98357
▁약해	-9.98365
▁뭐하는	-9.98383
▁보이노	-9.98413
▁뭐하냐	-9.98422
년도	-9.98428
연기	-9.98428
▁많아서	-9.98435
것만	-9.98439
사이트	-9.98443
오일	-9.98455
미군	-9.98464
▁머냐	-9.98464
▁뒤졌	-9.98469
▁지지자	-9.98477
▁면상	-9.9848
▁가동	-9.98482
▁천국	-9.98493
▁레이	-9.98504
▁신해	-9.98506
똥글	-9.98529
▁명의	-9.98534
먹히	-9.98535
분한	-9.98545
붙어	-9.9856
▁선택이	-9.98564
▁외국	-9.98582
식당	-9.9859
떠도	-9.98601
▁유사	-9.9861
▁어때	-9.9863
▁퇴	-9.9863
▁냉	-9.98633
▁싶은	-9.98634
경력	-9.98634
▁엠	-9.98667
▁곱	-9.98674
▁이분	-9.98674
▁엔진	-9.98676
▁개소리야	-9.98691
▁ᄎᄎ	-9.98701
▁tv	-9.98703
▁콧	-9.98704
▁앎	-9.98704
▁G	-9.98704
▁뼈	-9.98704
▁캠	-9.98704
▁햐	-9.98704
▁멍	-9.98705
▁아저씨	-9.98705
▁대깨문	-9.98705
▁숨	-9.98705
▁세입자	-9.98705
▁콩	-9.98705
▁스펙	-9.98708
▁슈	-9.98709
▁패딩	-9.98713
▁미만잡	-9.98714
▁거짓말	-9.98719
주는것도	-9.98721
▁가슴	-9.98722
▁만날	-9.98727
▁스트레스	-9.98734
▁마인드	-9.98734
▁쓰레기통으로	-9.98736
▁했습니다	-9.98736
▁엠생	-9.98742
▁학력	-9.98746
▁결과	-9.98749
▁아이돌	-9.98752
▁노무현	-9.98752
▁구분	-9.98763
▁빼고는	-9.98773
▁자료	-9.98779
▁생산	-9.98791
▁채우	-9.98794
▁이씨	-9.9883
석에서	-9.98842
▁공부못	-9.98844
다이기	-9.9887
▁부끄러	-9.9889
▁작년	-9.98904
▁싶어서	-9.98904
▁이혼	-9.98936
잘알	-9.98941
▁번다	-9.98961
스크	-9.98987
▁경쟁	-9.99006
일수록	-9.99026
▁속도	-9.99026
▁설치	-9.99036
▁배워라	-9.99036
▁귀엽다	-9.99059
▁괜찮은	-9.99086
▁현기	-9.99104
▁비싸게	-9.99108
▁승리	-9.99121
차별	-9.99122
▁강제	-9.99128
드시	-9.99129
▁몰라도	-9.99134
▁보호	-9.99137
이었던	-9.99153
▁전체	-9.9916
▁미안하다	-9.99174
▁욕하	-9.99187
▁역대	-9.99189
▁물어보	-9.99233
리플	-9.99265
▁좆같이	-9.99331
▁왔는데	-9.99367
잖아요	-9.99371
고싶	-9.99392
▁김밥	-9.99394
▁부장	-9.99407
▁몰려와	-9.99417
▁공간	-9.99431
▁본거	-9.99434
국은	-9.99439
▁개같은	-9.9947
▁많으면	-9.99508
▁싫어	-9.99508
▁병신새끼야	-9.99516
▁배워	-9.99517
▁파일	-9.9953
▁합의	-9.99544
희대	-9.99572
▁어리	-9.99608
▁하리	-9.99617
▁패	-9.99658
▁것이다	-9.99665
▁안타	-9.99668
▁그러는	-9.99687
▁고마	-9.99709
성적	-9.99713
시키고	-9.99713
다는걸	-9.99728
!!!!	-9.99735
▁생각함	-9.9975
가져오면	-9.99767
ll	-9.99791
▁맘에	-9.99815
착한	-9.9982
▁식	-9.99831
무원	-9.99872
있자나	-9.99895
▁노숙자	-9.99956
준다고	-9.99963
▁전시	-9.9998
▁친구들	-9.99989
▁기록	-10.0002
기보	-10.0012
비로	-10.0012
자살해라	-10.0013
▁힘들어	-10.0013
▁뒤진	-10.0015
세월	-10.0018
▁만들었	-10.002
▁감정	-10.0022
▁아래	-10.0024
▁s	-10.0026
▁비하면	-10.0026
▁속이	-10.0029
▁올라	-10.0031
▁좋네	-10.0031
없습니다	-10.0033
▁마리	-10.0033
▁시기	-10.0035
야겠다	-10.0041
좆문가	-10.0042
▁간지	-10.0043
▁그러나	-10.0046
이었음	-10.0046
▁사설	-10.0051
▁밖에	-10.0052
아이디	-10.0061
▁나올	-10.0064
말도	-10.0064
▁힘내라	-10.0066
▁수리	-10.0068
것들아	-10.0068
▁아닌거같	-10.0068
▁둘이	-10.0073
네이거	-10.0073
▁된다고	-10.0075
▁생겼	-10.0083
▁브라	-10.0089
가락	-10.009
마나	-10.0092
중이	-10.0093
▁나보다	-10.0093
w	-10.0098
▁있는거지	-10.0099
▁당시	-10.0099
▁졸	-10.0099
▁그러게	-10.0101
▁없네	-10.011
▁시절	-10.011
▁어이가	-10.0111
▁황	-10.0116
▁어쩌다	-10.0118
▁하나만	-10.012
▁개좆같	-10.012
는것도	-10.0121
▁예지	-10.0123
▁쌍	-10.0124
스러운	-10.0126
▁갈아	-10.0126
▁양아치	-10.0129
▁채널	-10.013
셔야	-10.0131
▁팔려	-10.0131
▁실패	-10.0133
님께	-10.0133
▁이뻐	-10.0134
▁크루	-10.0135
▁소수	-10.0137
▁배달	-10.0138
▁단계	-10.0138
▁애미뒤	-10.0139
법은	-10.0141
▁초반	-10.0141
▁해봐야	-10.0141
▁^	-10.0142
▁길가	-10.0144
▁모자	-10.0147
▁귀찮아	-10.0149
▁무적	-10.0152
덩이	-10.0158
▁라이	-10.0159
▁회장	-10.0162
▁샀	-10.0164
▁좋았	-10.0164
이러니	-10.0172
▁쟤는	-10.0174
▁사진에	-10.0181
어라	-10.0186
천원이	-10.0189
으니깐	-10.0195
사서	-10.0196
▁있어요	-10.02
700	-10.0201
▁에미	-10.0202
▁나음	-10.0208
▁입어	-10.0213
▁돼	-10.0217
▁인간은	-10.0217
▁세상에	-10.0219
▁공개	-10.022
당했	-10.0222
▁후에	-10.0222
만함	-10.0223
하다는	-10.0224
심리	-10.0226
사고	-10.0227
▁당함	-10.0233
▁그러지	-10.0235
통일	-10.0236
▁마시	-10.0237
▁들어오	-10.0237
시대	-10.0239
주노	-10.0261
▁좆나	-10.0263
수는	-10.0263
전용	-10.0263
▁한국당	-10.0273
▁알면	-10.0276
보르	-10.0279
기전에	-10.0282
▁먹을	-10.0288
깐	-10.0291
▁포기해	-10.0292
다보니	-10.0301
▁들어간	-10.0302
▁아니노	-10.0303
지ᄏᄏ	-10.0304
내서	-10.0306
▁난리	-10.0307
패고	-10.0308
▁입만	-10.0312
거여	-10.0315
▁문자	-10.0319
▁못해	-10.032
▁필	-10.0339
▁화나	-10.0343
이익	-10.0344
지는거	-10.0344
▁들리	-10.0345
▁있는것	-10.0354
▁유행이라	-10.0354
▁글에	-10.0354
기도	-10.0356
▁곳이라	-10.0361
려나	-10.0367
▁엘	-10.0371
▁강의	-10.0374
▁화장실에	-10.0383
▁여행	-10.039
▁아깝	-10.0395
▁옥	-10.0395
▁입장	-10.0397
▁나가지	-10.0397
▁교육	-10.0398
▁꿀잼	-10.0401
▁바닥	-10.0407
▁마스크	-10.0407
▁무지	-10.041
성에	-10.041
▁엌ᄏᄏᄏ	-10.0411
▁70	-10.0413
다운	-10.0414
조선이	-10.0426
분이	-10.043
▁불가능한	-10.043
▁집단	-10.0438
연이	-10.0442
사냐	-10.0459
▁좋지	-10.0459
자발	-10.0459
▁죽인	-10.0465
▁공지	-10.0478
▁정지	-10.0481
▁안감	-10.0485
있던데	-10.0493
리를	-10.0493
▁다운	-10.0501
파리	-10.0505
▁곳은	-10.0516
▁빡대가리들	-10.0524
▁기부	-10.0525
오는	-10.0534
불어	-10.0547
할수	-10.0552
떨어진	-10.0561
▁안보이	-10.0563
▁비싸	-10.0567
▁모른다	-10.0569
▁것이	-10.057
▁아닥하	-10.0572
▁근	-10.0575
▁뿌리	-10.058
▁극혐	-10.058
▁매일	-10.0583
벌라	-10.0586
▁중에	-10.059
▁제정	-10.0595
어졌	-10.0596
▁중대	-10.0599
팔면	-10.0603
▁여자들이	-10.0608
세대	-10.0609
▁폰	-10.0613
보일	-10.062
▁파도	-10.063
▁음	-10.0633
▁심각	-10.0644
되는데	-10.0646
▁시민	-10.065
▁매도	-10.0651
▁풍	-10.066
▁출신이라	-10.0662
▁주급	-10.0662
할수가	-10.0667
무너지	-10.067
▁위한	-10.068
▁잡는	-10.0681
▁관계	-10.0688
▁굴	-10.069
▁아는데	-10.0729
▁기술직이	-10.0744
▁용접배	-10.0748
수기	-10.0755
래서	-10.076
▁되었	-10.076
▁골라	-10.0764
되길	-10.0788
겠습니다	-10.0791
▁무식하	-10.0811
딸한테	-10.0814
▁새끼들아	-10.0816
??????	-10.0821
좋	-10.0827
행함	-10.0828
나왔네	-10.0839
▁소리하	-10.0844
도없	-10.0849
▁기술이	-10.0854
▁요약	-10.0868
있는건	-10.0874
ᄌᄒ	-10.0881
인치	-10.0883
▁주는	-10.0884
▁밤	-10.0887
타임	-10.0893
▁빈	-10.0911
가입	-10.0925
보고싶	-10.0927
인식이	-10.0951
▁되고	-10.0967
▁휴	-10.0968
먹음	-10.0969
▁억울하	-10.0979
맞네	-10.0983
좋아함	-10.0992
밑	-10.0997
상이	-10.1025
▁탄	-10.1052
▁진짜임	-10.1065
▁않지	-10.108
나가	-10.1083
▁마니	-10.1109
▁정도면	-10.1114
▁개통	-10.1123
웃기네	-10.1131
할줄	-10.1135
▁속	-10.1157
기술	-10.116
35	-10.116
▁ᄃ	-10.1173
▁된거	-10.1179
겠다고	-10.1194
▁지도	-10.1205
14	-10.121
▁규	-10.122
▁조건	-10.1232
듯이	-10.1247
▁걸린	-10.1258
형이	-10.1279
약한	-10.1285
양하	-10.1295
일이	-10.1306
▁같은거	-10.1307
뭐든	-10.1318
▁거부하	-10.1355
소라	-10.1357
색히	-10.1369
것임	-10.1378
▁성인	-10.1379
것같은데	-10.1383
▁망할	-10.1384
종자	-10.1389
▁있었다	-10.1403
▁못한	-10.1404
▁심하	-10.1409
▁깎	-10.1418
가냐	-10.143
▁친	-10.1443
이들	-10.1445
▁그러다	-10.1453
위로	-10.1456
▁하다가	-10.146
산에	-10.1461
씨발년	-10.1466
▁씹새끼	-10.1482
하라고	-10.1486
ra	-10.1496
▁사랑해	-10.1507
시는	-10.1514
▁보임	-10.1522
다면	-10.1529
활	-10.1532
▁직업이	-10.1541
는거라	-10.1554
▁행복하	-10.1562
▁버는	-10.1568
▁미친년이	-10.1575
▁안사	-10.1575
▁N	-10.1587
▁유익	-10.1619
성있	-10.1626
아요	-10.1629
라노	-10.1644
분들이	-10.1666
아까	-10.1668
하더만	-10.168
▁걸로	-10.1684
주의자	-10.1686
하지마	-10.1711
▁귀천이	-10.1735
▁순수	-10.175
넘게	-10.1766
▁했	-10.1778
했었	-10.178
▁줘	-10.1791
▁기억	-10.18
▁사서	-10.1814
▁나오면	-10.1816
▁이야	-10.1831
들어가는	-10.1844
크기	-10.185
▁다를	-10.1852
관상이	-10.1853
의원	-10.1857
았는데	-10.1859
▁건강	-10.1869
▁하이	-10.1871
▁인스타	-10.1877
ᄏᄏᄏᄏᄏᄏᄏᄏᄏᄏᄏᄏ	-10.1891
들어오	-10.1905
▁d	-10.1909
하길	-10.1915
줄줄	-10.1953
▁나옴	-10.1964
▁연기	-10.1964
▁말자	-10.1977
▁가능하	-10.1992
기업	-10.2003
대문	-10.2007
달고	-10.2015
▁속에	-10.2061
▁년들	-10.2064
▁극혐이	-10.2067
문자	-10.2091
▁했다	-10.212
▁목적	-10.2132
거자나	-10.2138
wa	-10.215
운동	-10.2157
미노	-10.2166
지말	-10.2181
드는거	-10.22
하시	-10.2206
▁찌	-10.2207
내고	-10.2216
라구	-10.2275
▁낫다는	-10.2281
온거	-10.2287
▁대해	-10.2288
▁행복	-10.2293
쓰고	-10.2303
▁보는거	-10.2306
하는건데	-10.2306
▁귀천	-10.2308
▁못한다	-10.2324
▁무섭	-10.2331
ᄃᄃᄃ	-10.2374
아직	-10.2374
▁안보는	-10.2386
겠네요	-10.2409
▁극복하	-10.2431
▁그정도	-10.2438
▁봐야	-10.2441
법이	-10.2455
▁치료하	-10.2457
▁편한	-10.2464
게이가	-10.2472
표정	-10.2474
▁남들	-10.2479
▁이정도	-10.2482
▁용접해	-10.251
▁김무성이	-10.2529
is	-10.255
▁티	-10.2561
푸는	-10.2596
▁침	-10.2604
▁운	-10.2607
▁201	-10.2612
▁히	-10.2636
같지	-10.2644
▁님	-10.2649
왔으면	-10.2669
▁내리	-10.2674
▁올리	-10.2677
아야	-10.2678
보이는	-10.2688
있네	-10.2709
일이다	-10.2713
진다	-10.2727
▁안타깝	-10.2732
허	-10.2757
▁생각하는	-10.2766
할거	-10.2773
ay	-10.28
▁해준	-10.2807
돼	-10.2815
▁일어	-10.2823
▁가세연에	-10.2859
낀	-10.2871
▁회	-10.288
스파	-10.2906
▁날이	-10.2927
한국당	-10.2939
생아	-10.2942
던지	-10.2963
이기	-10.298
프노	-10.2983
맞	-10.301
리즈	-10.3019
지노	-10.3022
할꺼	-10.3027
하심	-10.3028
▁못하	-10.3033
▁편하	-10.3035
▁자극	-10.3037
사까지	-10.3039
과의	-10.3063
선이	-10.3068
▁나라에	-10.3073
▁장난	-10.3093
쓰지	-10.3093
▁버스	-10.3102
▁모양	-10.312
▁남이	-10.3145
저런	-10.3145
간만에	-10.3154
때문이	-10.3159
▁알지	-10.3185
▁병신같은	-10.3188
-1	-10.3196
▁아니였	-10.3201
드나	-10.3204
출신	-10.3212
없고	-10.3217
▁돈많	-10.3224
계라	-10.3228
먹을	-10.3238
▁옹호	-10.3242
▁한다고	-10.3249
▁보니	-10.3272
조리	-10.3275
▁인식	-10.3282
치는거	-10.329
시네	-10.3303
거아님	-10.3308
▁미국이	-10.3329
드는	-10.3346
하더니	-10.3349
같다고	-10.3351
같음	-10.3362
ᄏᄏᄏᄏᄏᄏᄏᄏᄏᄏᄏ	-10.3364
적이고	-10.3399
▁석	-10.3406
친	-10.3414
ᄉᄀ	-10.3442
쓴	-10.3456
▁터	-10.3464
▁사회에	-10.3481
▁기술직	-10.35
▁대구시	-10.3511
넣	-10.3517
기고	-10.3524
▁아이들	-10.3531
▁된	-10.3531
▁찾으	-10.3532
▁봤다	-10.3538
천만	-10.3551
지다	-10.3556
▁영역	-10.357
▁탓	-10.3581
이이잉	-10.3586
▁좋다는	-10.3604
왔노	-10.3604
었지	-10.3605
▁완벽	-10.362
▁착하	-10.3636
겨운	-10.3636
것들이	-10.3638
똑	-10.366
▁나름	-10.3661
해보고	-10.3673
▁색	-10.3685
▁엌ᄏᄏᄏᄏᄏᄏ	-10.3692
▁불가능	-10.3701
▁ᄀᄊ	-10.3708
▁지키	-10.3733
▁자체	-10.3735
기만	-10.3737
▁할수있	-10.3739
▁600	-10.374
나온다	-10.3764
▁수가	-10.3772
부심	-10.3782
할게	-10.3783
하는게아니	-10.3818
▁비교해	-10.3822
왔	-10.384
▁니말	-10.3846
가진	-10.385
^	-10.386
싶	-10.3871
수학	-10.3874
떨	-10.3877
였지	-10.3881
황	-10.3883
샀	-10.3891
시면	-10.3892
지어	-10.3895
족	-10.3903
켜	-10.3904
▁한심	-10.391
는곳	-10.3923
사면	-10.3928
했어야	-10.3937
붙	-10.3937
▁전해	-10.3942
낫	-10.3942
아니	-10.3954
졸	-10.3957
or	-10.3964
찍	-10.3969
▁벌이	-10.3975
▁ᄀᄉ	-10.3978
죽이	-10.3982
논	-10.4005
빼	-10.401
멸	-10.4017
일본	-10.4017
엄	-10.402
f	-10.4022
생겼	-10.4025
찬	-10.4026
웅	-10.4026
객	-10.4026
턱	-10.4026
I	-10.4026
뜸	-10.4026
맹	-10.4026
브레이	-10.4027
삐	-10.4028
컨	-10.403
무적	-10.403
같냐	-10.4036
낳	-10.4038
보내주	-10.4041
무섭	-10.4043
비싸	-10.4046
대중	-10.4046
는건데	-10.4048
조센	-10.4055
될듯	-10.4055
잡아	-10.4056
깎	-10.4058
21	-10.4066
600	-10.4069
제꺼	-10.4072
도둑	-10.4077
맛	-10.4077
져라	-10.4079
애미뒤	-10.408
느껴	-10.4083
▁풍년	-10.4087
쌍	-10.409
예수	-10.4091
양아치	-10.4094
채널	-10.4095
힘	-10.4099
실패	-10.4102
접	-10.4106
뽑	-10.4108
배달	-10.4109
170	-10.4114
혜	-10.4114
▁말만	-10.4114
받은	-10.4118
회에	-10.412
▁감사	-10.412
초반	-10.412
그러	-10.4121
식으로	-10.4122
자빠졌네	-10.4124
J	-10.4124
스포츠	-10.4124
바꿔	-10.4126
옷	-10.4126
썩	-10.4128
크루	-10.4129
뿌	-10.413
힘든	-10.413
깔	-10.413
출신이라	-10.4131
깨	-10.4133
칠	-10.4135
경북	-10.4136
빤스	-10.4137
올려	-10.4137
▁자연스	-10.4139
이언	-10.414
진중권	-10.4142
있긴	-10.4142
ᅮᅮ	-10.4144
이뻐	-10.4144
등등	-10.4145
얼	-10.4145
▁역할	-10.4146
ᄍ	-10.415
뇌	-10.415
개꿀	-10.4151
좋아하는	-10.4151
그렇지	-10.4153
매일	-10.4155
▁좋겠	-10.4155
단계	-10.4156
시계	-10.4156
공개	-10.4157
+	-10.4158
젤	-10.4158
좋음	-10.416
생김	-10.416
티비	-10.4162
완전	-10.4163
▁하나님	-10.4164
23	-10.4165
씹	-10.4165
몇	-10.4165
80	-10.4167
갓	-10.4167
번호	-10.4168
올라	-10.4168
나왔	-10.417
몸	-10.4171
대표	-10.4171
똥	-10.4174
막	-10.4175
좌파	-10.4175
넘들	-10.4176
칼	-10.4177
대기업	-10.4181
암	-10.4181
가져가	-10.4182
큰	-10.4183
회장	-10.4183
댓글	-10.4185
있나	-10.4186
본인	-10.4189
친구	-10.4189
이노ᄏᄏ	-10.4189
여라	-10.4191
옆에	-10.4193
공부	-10.4194
▁좆되	-10.4196
▁힘내	-10.4204
혼자	-10.4204
처리	-10.4205
물론	-10.421
세계	-10.4212
홍어	-10.4213
th	-10.4214
노가다	-10.4218
30	-10.4219
11	-10.4219
회사	-10.4219
의견	-10.4223
박사	-10.4225
병신아	-10.4226
예상	-10.4227
직장	-10.4232
신분	-10.4233
병원	-10.4233
같더라	-10.4237
못하는	-10.4239
이네요	-10.4242
인증	-10.4243
경우	-10.4244
어디	-10.4249
▁수치	-10.425
고양이	-10.4253
사회	-10.4259
안감	-10.4265
가능성	-10.4275
시작	-10.4286
▁귀찮	-10.4293
▁욕먹	-10.4294
▁없으니	-10.4296
것은	-10.4298
기계	-10.43
때부터	-10.4309
오른	-10.4309
벌어	-10.4313
있어요	-10.4318
가져오	-10.433
업에	-10.4334
하네요	-10.4334
사람들이	-10.4335
▁알려	-10.4338
쁨	-10.4344
▁공무원들	-10.4346
▁역겹	-10.4349
~!!!	-10.4351
나베	-10.4363
실에	-10.4365
강의	-10.4368
▁귀엽	-10.4374
없는데	-10.4374
그래서	-10.4375
뭐가	-10.4378
되네	-10.4384
▁음식이	-10.4385
제일	-10.439
가는데	-10.4395
▁1.	-10.4402
자를	-10.441
받았	-10.4417
하면되	-10.4418
세끼	-10.442
시절에	-10.4425
정보	-10.4443
지역	-10.446
줬다	-10.4462
▁지켜	-10.4467
크로	-10.4474
촌	-10.4482
▁바뀐	-10.4485
쁘	-10.4486
해본	-10.4492
워서	-10.4493
▁준	-10.4495
▁똑	-10.4501
국수	-10.4514
으려고	-10.4514
이런	-10.4517
말하는거	-10.4518
▁하겠	-10.4519
▁중견	-10.4521
▁낫	-10.4521
뎅	-10.4527
당함	-10.4534
게이들	-10.4541
이라니	-10.4547
어야	-10.4558
슴	-10.4561
용접이	-10.4563
▁나라다	-10.4563
소름	-10.4571
우리	-10.4575
▁ᄏᄏᄏᄏᄏᄒ	-10.4585
쩌	-10.4586
먹는거	-10.4587
겠군	-10.4591
이야기	-10.4593
▁믿음	-10.46
소리야	-10.4607
리냐	-10.4614
사들	-10.4625
▁휴거	-10.4625
두고	-10.4634
▁속으	-10.4635
미만	-10.4639
앜	-10.4643
찔	-10.4643
▁물어	-10.4646
렸네	-10.4653
▁연애	-10.466
꼴리는	-10.466
▁버텨	-10.4663
쌔	-10.4664
테이	-10.4667
▁눈물	-10.4669
농	-10.4684
느끼	-10.4687
의식	-10.4691
쩔	-10.4693
댕	-10.4698
출신이	-10.4701
념	-10.4701
▁뭐하	-10.4701
i	-10.4703
될것같	-10.4706
섞	-10.4707
안해서	-10.4709
정확	-10.4709
껄	-10.471
빤	-10.471
픈	-10.4712
층	-10.4714
략	-10.4714
줘서	-10.4714
보기	-10.4715
갑니다	-10.4715
끌	-10.4717
▁바람	-10.4717
딜	-10.4717
느낌	-10.4717
싱	-10.4718
삶	-10.4718
겹	-10.4718
혐	-10.4719
랍	-10.4719
▁틀린	-10.4719
샤	-10.4719
끈	-10.472
▁돈벌	-10.4722
즘	-10.4722
렌	-10.4722
럭	-10.4722
뜯	-10.4723
▁ᄆᄎ	-10.4723
뷰	-10.4723
률	-10.4723
엑	-10.4723
끌려	-10.4723
텔	-10.4723
핀	-10.4724
ZtE	-10.4724
꼈	-10.4724
낄	-10.4724
▁우측	-10.4724
옵	-10.4724
쩍	-10.4724
쯧	-10.4724
Q	-10.4724
▁녹음	-10.4724
▁안죽	-10.4724
꿀팁	-10.4724
냠	-10.4724
뻔했	-10.4724
스럽네	-10.4724
저랬	-10.4724
켓	-10.4724
틈	-10.4724
▁개혁이	-10.4724
▁꼽아	-10.4724
▁띄워	-10.4724
▁믿을	-10.4724
▁밟아	-10.4724
▁보신탕집	-10.4724
▁자율주행	-10.4724
▁지랄발광	-10.4724
▁튀기	-10.4724
▁폄하	-10.4724
▁프린트	-10.4724
▁허세부리	-10.4724
▁혼혈화	-10.4724
갚	-10.4724
겪	-10.4724
늑	-10.4724
됩	-10.4724
듀	-10.4724
떄	-10.4724
몫	-10.4724
삘	-10.4724
씽	-10.4724
왓	-10.4724
챠	-10.4724
칙	-10.4724
X	-10.4724
art	-10.4724
ᄄᄃ	-10.4724
ᅢ	-10.4724
ᅥᄂ	-10.4724
“	-10.4724
▁CEO	-10.4724
▁house	-10.4724
▁you	-10.4724
▁ᄇᄃ거리	-10.4724
▁ᄊᄋᄌ	-10.4724
▁가벼운	-10.4724
▁간섭	-10.4724
▁갖다대	-10.4724
▁갠적	-10.4724
▁갤럭시	-10.4724
▁고등학생	-10.4724
▁괴롭히	-10.4724
▁그딴소리	-10.4724
▁금태섭	-10.4724
▁기득권	-10.4724
▁깡패	-10.4724
▁끔찍	-10.4724
▁낙태	-10.4724
▁눈탱이	-10.4724
▁느금마	-10.4724
▁늙다리새	-10.4724
▁동의완료	-10.4724
▁두렵	-10.4724
▁드래곤	-10.4724
▁듣보잡	-10.4724
▁딴거	-10.4724
▁딴짓	-10.4724
▁떠오르	-10.4724
▁마지노선	-10.4724
▁매니토바	-10.4724
▁명예훼손	-10.4724
▁물고빨고	-10.4724
▁뮨재	-10.4724
▁민주주의	-10.4724
▁믿기	-10.4724
▁바뀌	-10.4724
▁밟혀	-10.4724
▁밤꽃	-10.4724
▁베댓	-10.4724
▁베트콩	-10.4724
▁부들거려	-10.4724
▁부엉이바위	-10.4724
▁뺏기	-10.4724
▁뻔한	-10.4724
▁삽자루	-10.4724
▁상류층	-10.4724
▁샌드백	-10.4724
▁섬숭이	-10.4724
▁섭리	-10.4724
▁셀프	-10.4724
▁싫다	-10.4724
▁쌩까	-10.4724
▁썅것들	-10.4724
▁쏘세	-10.4724
▁아ᄏᄐᄏᄏ	-10.4724
▁아나운서	-10.4724
▁암묵적으로	-10.4724
▁앵커	-10.4724
▁어마어마	-10.4724
▁얻어	-10.4724
▁에어팟	-10.4724
▁오래오래	-10.4724
▁완치	-10.4724
▁왼쪽	-10.4724
▁윤서인	-10.4724
▁윤석	-10.4724
▁윤짜장	-10.4724
▁음주운전	-10.4724
▁이렇지	-10.4724
▁재밋	-10.4724
▁전국체전	-10.4724
▁좆선족	-10.4724
▁집행유예	-10.4724
▁짱퀴벌레	-10.4724
▁총쏘고	-10.4724
▁클럽	-10.4724
▁탄핵	-10.4724
▁테일윈드	-10.4724
▁튄거	-10.4724
▁하위호환	-10.4724
▁하층민	-10.4724
▁핥짝	-10.4724
▁허경영	-10.4724
▁현명하네	-10.4724
▁홍콩영화	-10.4724
▁훌륭한	-10.4724
▁훨씬많	-10.4724
▁휴대폰	-10.4724
▁흉기	-10.4724
◉	-10.4724
文	-10.4724
계좌	-10.4724
고맙다	-10.4724
굉	-10.4724
귐	-10.4724
깡통	-10.4724
껀	-10.4724
껍	-10.4724
꿍	-10.4724
끼마사오	-10.4724
납	-10.4724
냅	-10.4724
냔	-10.4724
넉	-10.4724
놐ᄏᄏᄏᄏᄏᄏᄏᄏᄏᄏᄏ	-10.4724
닷	-10.4724
댐	-10.4724
덮밥	-10.4724
둥	-10.4724
들많음	-10.4724
떰	-10.4724
뚝	-10.4724
띨	-10.4724
랫	-10.4724
랴	-10.4724
럿	-10.4724
렷	-10.4724
롤	-10.4724
룰	-10.4724
맞춰	-10.4724
몰입하	-10.4724
뭍	-10.4724
믄	-10.4724
밈	-10.4724
밨	-10.4724
뱃	-10.4724
뱅	-10.4724
벳	-10.4724
벽돌	-10.4724
벽면에	-10.4724
봤습니다	-10.4724
봤음	-10.4724
부지런한	-10.4724
붸	-10.4724
빔	-10.4724
빻	-10.4724
삽	-10.4724
생겻	-10.4724
섬	-10.4724
섰	-10.4724
셰	-10.4724
쉑	-10.4724
싫어서	-10.4724
썹	-10.4724
쎄	-10.4724
씬	-10.4724
씹찐따	-10.4724
앤	-10.4724
얗	-10.4724
엣	-10.4724
엥	-10.4724
왁	-10.4724
움직이는	-10.4724
웹	-10.4724
윙	-10.4724
의료보험	-10.4724
이벤트	-10.4724
쟈	-10.4724
젓	-10.4724
중국간첩	-10.4724
쪄	-10.4724
쫒	-10.4724
챔	-10.4724
철컹	-10.4724
첸	-10.4724
촛	-10.4724
칸	-10.4724
커뮤니티	-10.4724
커밍	-10.4724
쾌	-10.4724
쿡	-10.4724
쿼터	-10.4724
킥	-10.4724
킼	-10.4724
탔	-10.4724
테크니션	-10.4724
퉤	-10.4724
팡	-10.4724
펌	-10.4724
펴	-10.4724
폼	-10.4724
하놐ᄏᄏ	-10.4724
헛소리	-10.4724
헥	-10.4724
헼	-10.4724
혁명	-10.4724
호텔뷔페	-10.4724
홈	-10.4724
▁떠밀려	-10.4724
▁못차렸네	-10.4724
▁박보검	-10.4724
▁연령대	-10.4724
▁최저시급	-10.4724
▁테크트리	-10.4724
벼	-10.4724
▁걷어	-10.4724
▁고등학교에	-10.4724
▁늦어	-10.4724
▁단정짓	-10.4724
▁대하이햄	-10.4724
▁롱패딩	-10.4724
▁무용지물	-10.4724
▁민노총	-10.4724
▁손때야되는	-10.4724
▁아무렇지	-10.4724
▁아쉬움	-10.4724
▁애미애비	-10.4724
▁얘쁘네	-10.4724
▁제조업	-10.4724
▁즐긴	-10.4724
▁카톡	-10.4724
▁팬이었	-10.4724
▁프롬프	-10.4724
▁황교안이	-10.4724
그룹	-10.4724
랏	-10.4724
밧	-10.4724
봤어	-10.4724
뵈	-10.4724
시더군요	-10.4724
식투쟁	-10.4724
씹쌔끼	-10.4724
자궁문신	-10.4724
촉	-10.4724
▁99.9	-10.4724
▁깍새	-10.4724
▁모하비	-10.4724
▁스무살	-10.4724
▁외제차	-10.4724
▁쯧쯧	-10.4724
▁크루수장	-10.4724
밝히는	-10.4724
좌석	-10.4724
틱	-10.4724
▁모니터	-10.4724
▁불합리	-10.4724
▁송가인	-10.4724
▁가급적	-10.4724
▁개최국	-10.4724
▁떠드는	-10.4724
▁스크롤	-10.4724
▁고유정	-10.4724
▁디자인	-10.4724
▁부러우	-10.4724
▁사춘기	-10.4724
▁상종안	-10.4724
▁옵션	-10.4724
▁휴게소	-10.4724
어려울때	-10.4724
핫	-10.4724
▁똥남아	-10.4724
▁오렌지	-10.4724
▁인강강사	-10.4724
▁꿈깨	-10.4724
▁느낄	-10.4724
▁저출산	-10.4724
▁함소원	-10.4724
교통부	-10.4724
삼각함수	-10.4724
하하하하하하	-10.4724
▁개최한다	-10.4724
▁쓰래기	-10.4724
▁않았다	-10.4724
▁눈앞에	-10.4724
▁대단하다	-10.4724
▁두려워	-10.4724
▁밀어붙여	-10.4724
▁어렸을	-10.4724
▁징징	-10.4724
▁편피노	-10.4724
모쏠아다	-10.4724
스러울	-10.4724
탈북자	-10.4724
▁무서움	-10.4724
▁안전거리	-10.4724
▁OK	-10.4724
▁어코드	-10.4724
▁킬러조	-10.4724
집합소	-10.4724
▁ᄑᄐᄎ	-10.4724
▁길거리	-10.4724
▁뉴욕	-10.4724
▁따르게	-10.4724
▁마무리	-10.4724
▁믿지	-10.4724
▁복지정책	-10.4724
▁위장보수	-10.4724
▁한마디	-10.4724
사무소	-10.4724
이므니다	-10.4724
클라스	-10.4724
▁비호감	-10.4724
▁육변기	-10.4724
▁쫄보	-10.4724
검찰청	-10.4724
▁사악한	-10.4724
▁땡기네	-10.4724
▁아내분	-10.4724
▁악랄하	-10.4724
▁겹쳐	-10.4724
▁배터리	-10.4724
▁브랜드	-10.4724
바둑이	-10.4724
gshi	-10.4724
▁나란데	-10.4724
▁유전자	-10.4724
▁전교조	-10.4724
▁졸렬한	-10.4724
개터졌네	-10.4724
시킬거	-10.4724
▁싱글	-10.4724
▁며칠	-10.4724
들어야되냐	-10.4724
▁훈수	-10.4724
▁데려와	-10.4724
악어떼	-10.4724
▁봉쇄	-10.4724
웃고간다	-10.4724
▁깜빡이	-10.4724
▁무리수	-10.4724
▁사진작가	-10.4724
▁청와대	-10.4724
▁포장지	-10.4724
▁수소차	-10.4724
진말자	-10.4724
▁힘내시길	-10.4724
공수처	-10.4724
▁느검	-10.4724
▁게으른	-10.4724
▁깔끔	-10.4724
▁엑소	-10.4724
▁똑똑	-10.4724
▁메리트	-10.4724
▁사무라이	-10.4724
▁부사관이	-10.4724
▁웃겼	-10.4724
▁중소기업	-10.4724
▁빨렙들	-10.4724
▁훈장	-10.4724
아키호	-10.4724
9427	-10.4724
▁맛녀석	-10.4724
허허	-10.4724
오타쿠	-10.4724
▁폐쇄	-10.4724
▁고르는	-10.4724
▁감수성	-10.4724
▁지장없	-10.4724
메이커	-10.4724
▁존잘이	-10.4724
▁탈탈털	-10.4724
▁채용하	-10.4724
▁포인트	-10.4724
▁축복	-10.4724
결론이	-10.4724
공포증	-10.4724
강연들	-10.4724
▁에이형	-10.4724
▁선진국	-10.4724
▁탈조선	-10.4724
▁지랄염병하	-10.4724
▁짐승	-10.4724
▁대구교대	-10.4724
▁쓸데없	-10.4724
▁업로드	-10.4724
땡긴다	-10.4725
▁조중동	-10.4725
ᄀᄅᄋ	-10.4725
▁자살시도	-10.4725
▁경상도	-10.4725
앞잡이	-10.4725
▁개신교	-10.4725
▁목숨	-10.4725
▁부활하	-10.4725
▁끌어	-10.4725
▁뜯어	-10.4725
▁동조하는	-10.4725
▁김구라	-10.4725
▁싸지른	-10.4725
▁근본	-10.4725
▁배승희	-10.4725
조무사	-10.4725
▁설득하	-10.4725
▁ᄐᄏᄏᄏᄏᄏᄏ	-10.4725
▁악마들	-10.4725
▁놀아나	-10.4725
금없네	-10.4725
개극혐	-10.4725
▁박나래	-10.4725
▁오케이	-10.4725
▁종북짓	-10.4725
▁갈수있	-10.4725
▁바퀴	-10.4725
▁ᄆᄎᄂ	-10.4725
/1122	-10.4725
크로율	-10.4725
빌런	-10.4725
▁원룸	-10.4725
▁튼튼	-10.4725
놀이터	-10.4725
▁어쩌라구	-10.4725
▁ᄃᄃᄃᄃᄃᄃᄃᄃᄃᄃᄃᄃᄃ	-10.4725
▁트렌	-10.4725
▁정신승리	-10.4725
▁장인이	-10.4725
▁맥북	-10.4725
▁일상생활	-10.4725
성경대로	-10.4725
▁페북	-10.4725
▁효진	-10.4725
새누리	-10.4725
▁전염시	-10.4725
▁기소권	-10.4725
▁중요한	-10.4725
▁놀랍	-10.4726
▁부러워	-10.4726
▁씨부	-10.4726
▁gd	-10.4726
▁가난한	-10.4726
▁북괴	-10.4726
▁쪽본	-10.4726
▁재능충	-10.4726
인거지	-10.4726
케이스	-10.4726
▁사법부가	-10.4726
매국당	-10.4726
▁언플	-10.4726
커플	-10.4726
하겠는데	-10.4726
ᄎᄏ	-10.4726
▁ᄌᄌ	-10.4726
he	-10.4726
▁la	-10.4726
▁꼴보기	-10.4726
따먹기	-10.4726
▁야스오	-10.4726
가고싶어	-10.4726
▁my	-10.4726
▁검찰	-10.4726
텐츠	-10.4726
ech	-10.4726
▁깔짝	-10.4726
▁비밀	-10.4726
▁폰팔이	-10.4726
▁언젠	-10.4726
▁스시녀	-10.4726
▁그려진	-10.4726
▁무서워	-10.4726
▁수용소	-10.4726
▁아닐	-10.4726
▁2020	-10.4727
랍니다	-10.4727
▁어떡	-10.4727
▁명령	-10.4727
▁수조원	-10.4727
zz	-10.4727
▁놀고먹	-10.4727
▁일어날	-10.4727
▁유치원	-10.4727
▁새키	-10.4727
▁돌대가리	-10.4727
▁감사합니다	-10.4727
▁착해졌	-10.4727
▁속았네	-10.4727
네임드	-10.4727
▁복귀	-10.4727
ub	-10.4727
▁병신천지	-10.4727
▁죠져	-10.4727
▁어릴때	-10.4727
▁주뎅이	-10.4727
id	-10.4727
▁찌찌	-10.4727
▁가끔씩	-10.4727
▁스티브	-10.4727
성애자	-10.4727
▁번화가	-10.4727
였던적	-10.4727
▁싸잡아	-10.4727
▁주택	-10.4727
▁개새들	-10.4727
▁돌아다니는	-10.4727
도주작이	-10.4727
▁택시기사	-10.4728
▁돌고래	-10.4728
▁남양주	-10.4728
▁따까리	-10.4728
▁소멸	-10.4728
선포하	-10.4728
고속도로	-10.4728
▁헬스장	-10.4728
▁지웠다	-10.4728
▁작품	-10.4728
시키들아	-10.4728
시나요	-10.4728
▁가깝	-10.4728
▁벌었	-10.4728
▁탈탈	-10.4728
▁박멸	-10.4728
징역	-10.4728
▁김지영	-10.4728
▁무소속	-10.4728
씨왕조	-10.4728
버렸	-10.4728
한거아니	-10.4728
▁민망	-10.4729
▁쪽빠	-10.4729
▁지지율	-10.4729
▁어딘데	-10.4729
▁휴직	-10.4729
▁체결	-10.4729
▁역겨움	-10.4729
▁마이너스	-10.4729
▁하고싶은말	-10.4729
▁틀렸냐	-10.4729
▁채영	-10.4729
▁존못	-10.4729
▁한두번	-10.4729
ski	-10.4729
▁대구경북	-10.4729
염병	-10.4729
▁쓸모없	-10.4729
타이트	-10.4729
▁못배워	-10.4729
▁사퇴	-10.4729
엉금	-10.4729
▁판매	-10.4729
▁서울시장	-10.4729
댔음	-10.4729
▁좆망했	-10.4729
▁결제	-10.4729
▁회복	-10.4729
▁재활	-10.4729
▁견제	-10.4729
▁지켜봐야	-10.4729
▁손가락	-10.4729
▁모자란	-10.4729
▁ᄌᄀ	-10.4729
▁박았어	-10.4729
▁삶은	-10.4729
▁알았더니	-10.4729
짜고치	-10.4729
▁구분짓	-10.473
▁2021	-10.473
▁기념	-10.473
▁찍은거	-10.473
▁끌려가	-10.473
▁김성령	-10.473
▁양육	-10.473
▁곱창	-10.473
▁괴물	-10.473
▁감염	-10.473
지우지	-10.473
▁운운	-10.473
▁합리적	-10.473
▁육군	-10.473
▁쪼아	-10.473
자격증	-10.473
▁무난하	-10.4731
▁절반	-10.4731
▁꿈의	-10.4731
경궁	-10.4731
▁실컷	-10.4731
▁ᄋᄌᄅ	-10.4731
▁그짝이	-10.4731
▁종결	-10.4731
▁검열	-10.4731
▁아파치	-10.4731
▁렉서	-10.4731
▁순경이	-10.4731
▁불쌍타	-10.4731
▁아이폰	-10.4732
▁제외하고	-10.4732
▁진압	-10.4732
▁장착	-10.4732
▁표현	-10.4732
av	-10.4732
er	-10.4732
▁쳐올리	-10.4732
▁어깨	-10.4732
▁연료	-10.4732
▁퇴사하고	-10.4732
▁목소리	-10.4732
▁우기고	-10.4732
▁쓰레기통에	-10.4732
▁종합	-10.4732
▁석유	-10.4732
▁있을뿐	-10.4732
▁쌍방	-10.4732
▁클까	-10.4732
없자나	-10.4732
▁이어폰	-10.4732
활동	-10.4732
▁여러분	-10.4732
▁달아주	-10.4733
▁두달	-10.4733
▁대접	-10.4733
ta	-10.4733
갔는데	-10.4733
▁타겟	-10.4733
▁전략	-10.4733
당깨	-10.4733
▁밀어주	-10.4733
계층	-10.4733
▁제품	-10.4734
▁죽겟	-10.4734
▁당근	-10.4734
▁번역	-10.4734
▁평판	-10.4734
▁최저	-10.4734
on	-10.4734
▁불쌍하다	-10.4734
▁해야하나	-10.4734
▁유명한	-10.4734
인생좆망	-10.4734
▁운전	-10.4734
▁존예	-10.4734
▁위대해	-10.4735
근육	-10.4735
▁읽으면	-10.4735
▁기다려주	-10.4735
▁몸매	-10.4735
▁냉동	-10.4735
kg	-10.4735
▁그돈으로	-10.4735
▁깨끗한줄	-10.4735
▁메달	-10.4735
▁팀장	-10.4735
패널	-10.4735
▁빠따	-10.4735
▁좋은곳	-10.4735
▁태권	-10.4735
▁했잖아	-10.4735
갔냐	-10.4736
▁집착	-10.4736
▁실축	-10.4736
▁집팔	-10.4736
▁이슈	-10.4736
▁김치녀	-10.4736
▁환경	-10.4736
▁사형시켜	-10.4736
▁루미	-10.4736
▁글삭	-10.4736
▁질싸	-10.4736
▁스타트	-10.4736
▁교통	-10.4736
▁어머니	-10.4736
바람피운	-10.4736
▁보인다	-10.4736
기어들어	-10.4737
▁키즈	-10.4737
센징	-10.4737
▁터트	-10.4737
▁허락	-10.4737
▁충분	-10.4737
▁쥬지	-10.4737
▁답없음	-10.4737
▁300	-10.4737
▁조립	-10.4737
ᄃᄃᄃᄃᄃᄃᄃᄃ	-10.4737
▁조심해야	-10.4737
▁펨코에서	-10.4737
콜라	-10.4738
지말아라	-10.4738
절만해라	-10.4738
▁당연한건데	-10.4738
▁출산	-10.4738
▁무능	-10.4738
▁장모님	-10.4738
▁지껄	-10.4738
▁인근	-10.4738
▁사촌	-10.4738
했죠	-10.4738
oh	-10.4738
▁선행	-10.4738
nd	-10.4738
▁기레기	-10.4738
▁모욕	-10.4738
태워	-10.4738
▁65	-10.4739
▁따라가라	-10.4739
▁카페	-10.4739
마인드네	-10.4739
▁최악	-10.4739
▁지이이잉	-10.4739
공산당이	-10.4739
▁전문가들	-10.474
▁전향	-10.474
▁먹방	-10.474
▁이건희	-10.474
▁회원	-10.474
▁용접공이니	-10.474
▁폭동	-10.474
제곱	-10.474
평등	-10.474
▁애플	-10.474
▁은혜의	-10.474
▁성욕	-10.474
▁뒤질래	-10.474
74	-10.4741
먹는중	-10.4741
▁섞어	-10.4741
김여사	-10.4741
쥐어주	-10.4741
▁권력	-10.4741
▁퍼온	-10.4741
▁골반	-10.4741
손모양	-10.4741
▁애국심	-10.4741
▁무능해서	-10.4741
▁예수님	-10.4742
▁따블	-10.4742
▁의료비	-10.4742
워짐	-10.4742
▁틀림	-10.4742
▁예를들	-10.4742
가라데	-10.4742
색희	-10.4742
▁빠져	-10.4742
▁옷입	-10.4743
▁사이비	-10.4743
▁좆냥이	-10.4743
▁3000	-10.4743
▁구하기	-10.4743
▁발견	-10.4743
▁반응	-10.4743
▁매매	-10.4743
▁토론	-10.4743
▁시팔	-10.4743
▁조커	-10.4743
▁두꺼	-10.4744
▁뛰어내	-10.4744
불복	-10.4744
▁옥상	-10.4744
▁씨부리	-10.4744
▁조선소	-10.4744
▁실천	-10.4744
▁철판	-10.4745
하나보네	-10.4745
나갈때	-10.4745
▁울분	-10.4745
▁모르겠지만	-10.4745
▁태어나	-10.4745
▁180	-10.4745
▁살아남	-10.4745
▁호남	-10.4745
▁능지	-10.4745
▁나타났	-10.4746
▁검정	-10.4746
쓴소리	-10.4746
▁관리비	-10.4746
▁화장하고	-10.4746
▁돌아오	-10.4746
▁자존	-10.4747
▁개씹새끼	-10.4747
▁레전	-10.4747
악플	-10.4747
라운드	-10.4747
▁임명	-10.4747
▁친일	-10.4747
▁가봤는데	-10.4748
▁상위	-10.4748
▁오줌	-10.4748
▁서양	-10.4748
올꺼	-10.4748
직감이	-10.4748
▁밥벌	-10.4748
따먹고	-10.4748
갑옷	-10.4748
작용	-10.4748
▁인류	-10.4748
▁과실	-10.4748
▁씨바	-10.4748
한국복싱	-10.4749
▁삐진거	-10.4749
▁없으니까	-10.4749
▁왜그러	-10.4749
▁의학	-10.4749
▁월세	-10.4749
▁자동진	-10.4749
댕기	-10.475
웃흥	-10.475
▁레드	-10.475
▁피파	-10.475
▁판단	-10.475
▁국제	-10.475
▁외국인	-10.475
▁꼬우	-10.475
해준건	-10.475
▁황인	-10.4751
▁불편	-10.4751
▁심심	-10.4751
▁앞장	-10.4751
▁편집	-10.4751
▁올림픽때	-10.4751
▁주작글	-10.4751
▁갓남	-10.4752
오름	-10.4752
▁씨발새끼들아	-10.4752
▁정상이냐	-10.4752
사러가	-10.4752
▁실업	-10.4752
▁발표	-10.4752
▁와꾸	-10.4752
▁개좆같음	-10.4752
▁될거	-10.4752
▁감독	-10.4752
cc	-10.4752
가없는대	-10.4752
일뿐	-10.4752
근처	-10.4753
▁의심	-10.4753
▁있을거다	-10.4753
▁수십	-10.4753
▁전범	-10.4754
▁연출	-10.4754
▁색시	-10.4755
협회	-10.4755
애들이	-10.4755
--	-10.4755
▁안착해	-10.4755
▁피해보	-10.4755
▁키운	-10.4755
▁민원인	-10.4755
▁식사	-10.4755
▁낮아	-10.4756
▁막혀	-10.4756
나타나	-10.4756
샀냐	-10.4756
교입니다	-10.4756
▁진박	-10.4756
레발	-10.4756
군번	-10.4756
▁영입	-10.4757
▁증명	-10.4757
▁담당	-10.4757
▁실토	-10.4757
▁심오	-10.4757
▁무현	-10.4757
▁잘산다	-10.4757
▁힘든데	-10.4757
스팅	-10.4758
오유에	-10.4758
▁푸러	-10.4758
▁해버리	-10.4758
▁분탕이라고	-10.4758
▁도태	-10.4758
▁그것보다	-10.4758
▁망한다	-10.4758
오냐	-10.4759
즈원	-10.4759
▁후회	-10.4759
▁병신같음	-10.4759
▁연돈	-10.4759
▁제출	-10.4759
리필	-10.4759
▁있습니다	-10.4759
잘했노	-10.4759
하시네	-10.476
일텐데	-10.476
나봐요	-10.476
▁보니깐	-10.476
▁잘가라	-10.476
▁둘러	-10.476
▁걱정마	-10.476
▁조선인들	-10.4761
농구	-10.4761
▁예산	-10.4761
▁쳐먹어라	-10.4762
▁503	-10.4762
▁우승	-10.4763
ᄀᄂ	-10.4763
▁딱봐도	-10.4763
터짐	-10.4763
야되나	-10.4763
▁쓸려고	-10.4763
▁반박	-10.4764
▁집회	-10.4764
▁비난	-10.4764
▁아이러니	-10.4764
▁불체	-10.4765
일본복싱	-10.4765
▁스카	-10.4765
▁진심이다	-10.4765
▁구독자	-10.4765
▁하는군요	-10.4765
▁식인	-10.4766
▁주어는	-10.4766
▁아닌듯	-10.4766
소련	-10.4766
▁나중이	-10.4767
▁루시	-10.4767
▁원래대로	-10.4767
아버림	-10.4768
▁잘하고있	-10.4768
어먹는	-10.4768
받았으니	-10.4768
▁웃음	-10.4768
▁패기	-10.4768
▁저럴	-10.4768
▁ᄋᄌ이지	-10.4768
갔다가	-10.4768
사이즈	-10.4768
▁같네요	-10.4769
사회생활	-10.4769
▁학생	-10.4769
▁모자리	-10.4769
▁목줄	-10.4769
▁언어	-10.4769
▁많겠네	-10.4769
살아있	-10.4769
▁비추	-10.477
▁자살당	-10.477
▁사탄	-10.477
할매	-10.477
▁미쳐	-10.4771
상위권	-10.4771
▁호구	-10.4771
▁몇번	-10.4771
▁않을듯	-10.4771
▁고소당	-10.4771
▁든다	-10.4771
▁어디꺼	-10.4772
포드	-10.4772
▁인정할	-10.4772
▁있구나	-10.4772
▁망했	-10.4773
▁차분	-10.4773
▁공적	-10.4773
되나요	-10.4773
▁느끼는	-10.4774
▁자유로	-10.4774
▁인색	-10.4774
▁자유	-10.4775
미터	-10.4775
▁소재	-10.4775
모래	-10.4775
하는것보	-10.4776
▁올리네	-10.4776
▁뇌피셜이	-10.4777
▁그립	-10.4777
▁동창	-10.4777
▁달성	-10.4777
퇴직후	-10.4778
본거같은데	-10.4778
찌르	-10.4778
▁그랬어	-10.478
▁42	-10.478
시켜야	-10.478
▁집판	-10.478
05	-10.4781
▁페미니	-10.4781
계약	-10.4781
▁클론임	-10.4781
ᄋᄃ	-10.4782
▁좃같다	-10.4782
올렸	-10.4782
브라운	-10.4782
▁평등하	-10.4783
▁브리	-10.4783
▁현장	-10.4783
▁난쟁이	-10.4783
▁벌려	-10.4783
쌔다	-10.4783
호동	-10.4784
하려는거지	-10.4784
!!!!!!	-10.4784
▁버텨야	-10.4785
가라이기	-10.4785
▁인문	-10.4785
▁지역구	-10.4785
▁캐구	-10.4785
위해	-10.4785
▁공공	-10.4786
▁바디	-10.4786
▁재방	-10.4786
▁쑤셔박	-10.4787
퍼주	-10.4787
불고기	-10.4787
▁키우	-10.4787
▁해결되	-10.4787
▁여자애	-10.4787
홍익	-10.4788
면허	-10.4789
▁무명	-10.4789
진핑	-10.4789
▁걔네	-10.4789
▁도배	-10.479
▁생겼네	-10.479
▁부려	-10.479
▁건물	-10.479
떠네	-10.479
끄는	-10.479
씨발ᄏᄏᄏᄏᄏᄏᄏ	-10.4791
해본다	-10.4791
▁처벌받	-10.4791
▁신종	-10.4791
▁여유	-10.4791
▁건드	-10.4792
▁창녀나	-10.4792
비켜	-10.4793
리스트	-10.4793
릴것같	-10.4793
페이지	-10.4794
▁시작하는	-10.4794
있었을까	-10.4794
▁주위	-10.4795
선사업	-10.4795
▁안쓴다	-10.4796
▁37	-10.4797
▁포기	-10.4797
▁조씨	-10.4797
▁우주의	-10.4798
▁시발년들	-10.4798
▁부르시	-10.4798
▁어울	-10.4799
해봐야	-10.4801
▁잠수	-10.4801
▁인권	-10.4801
▁화장	-10.4802
▁유학	-10.4802
ᄌ될	-10.4802
▁씨벌련	-10.4803
맛에	-10.4803
방제	-10.4803
절레	-10.4803
호차	-10.4804
▁추천해	-10.4804
▁접어	-10.4805
찔리	-10.4805
▁틀어	-10.4805
▁강원	-10.4805
▁방해	-10.4805
▁보배	-10.4805
군데	-10.4805
니네집	-10.4806
선비	-10.4806
▁때려	-10.4807
▁근로	-10.4807
서강대	-10.4808
규모	-10.4808
▁아니란	-10.4808
▁우기는	-10.4808
▁개병신아	-10.4809
▁찬성	-10.481
▁한민	-10.481
▁공산	-10.481
▁미개	-10.4811
▁친중	-10.4811
종목	-10.4812
▁김세	-10.4813
mm	-10.4813
하위	-10.4814
▁미화	-10.4814
한척	-10.4814
연애할	-10.4815
▁주위에	-10.4815
용차	-10.4816
▁스타일	-10.4816
▁결혼했	-10.4817
▁모르겠는데	-10.4817
▁쓰러	-10.4818
▁미신	-10.4818
▁놈들이지	-10.4818
▁똑같네	-10.4818
▁22	-10.4818
▁지적	-10.4819
▁야간	-10.4819
▁냄새나	-10.482
질하는거	-10.482
꼬추	-10.482
▁망함	-10.4821
▁타먹	-10.4821
라는거냐	-10.4821
▁실상	-10.4821
▁감당	-10.4821
구민들	-10.4822
▁정권	-10.4822
▁ᄏᄏᄏᄏᄏᄏᄏᄏᄏᄏᄏᄏ	-10.4823
교포	-10.4823
▁우선	-10.4823
렸나	-10.4823
▁야동	-10.4823
▁이마니	-10.4823
▁딸치	-10.4823
▁낳고	-10.4823
씨발련아	-10.4824
튀어나오	-10.4824
제동	-10.4824
▁별거	-10.4825
해주는데	-10.4825
▁인물	-10.4825
사이버	-10.4827
▁쪽국	-10.4828
합격	-10.4828
▁진주	-10.4829
!!!!!	-10.4829
▁비비	-10.4829
▁고발	-10.483
▁한두	-10.483
였네	-10.483
않는이상	-10.483
▁잡히	-10.483
▁안그래	-10.4831
수사권	-10.4833
업종	-10.4833
▁성당	-10.4834
였나	-10.4834
봉사	-10.4834
!!!!!!!!	-10.4835
생긴	-10.4835
fp	-10.4835
▁살인자	-10.4836
었을때	-10.4836
▁디져	-10.4837
▁중소	-10.4837
동네에서	-10.4838
hp	-10.4838
▁뭐하나	-10.4838
▁요시	-10.4839
교복	-10.4839
▁수학과	-10.4839
▁니네가	-10.4839
▁갈때	-10.484
▁말이네	-10.484
그람	-10.4841
▁기다려	-10.4841
▁가세요	-10.4842
▁터져	-10.4842
▁하죠	-10.4842
평타	-10.4842
▁시급	-10.4843
▁응원	-10.4843
▁위장	-10.4843
네여	-10.4844
담그	-10.4844
▁정화	-10.4844
질이야	-10.4844
▁휴거는	-10.4845
▁자위	-10.4845
▁집안	-10.4845
뒤짐	-10.4845
예요	-10.4846
품번	-10.4847
▁주님	-10.4847
▁지워	-10.4848
▁밤에	-10.4848
시티	-10.4849
▁사진찍어	-10.485
▁통해	-10.4851
하고잇	-10.4851
하셨	-10.4851
물이네	-10.4851
▁길어지	-10.4852
▁허리	-10.4853
▁만드는	-10.4853
▁전남	-10.4854
려주	-10.4855
▁야당	-10.4855
▁아주대	-10.4856
안본다	-10.4856
▁아름	-10.4856
▁의무	-10.4857
▁분리	-10.4857
꺼라고	-10.4859
▁멍청하	-10.4859
▁공감	-10.4859
▁줄어	-10.486
▁달랑	-10.486
▁있었노	-10.4861
라그래	-10.4863
▁부럽다	-10.4863
▁들어가야	-10.4863
뽑아주	-10.4864
▁충실	-10.4866
▁똑같다	-10.4866
▁기원	-10.4866
▁못하나	-10.4867
▁돈벌이	-10.4868
없어짐	-10.4868
수있다	-10.4869
선수들	-10.487
채워	-10.487
▁적어놓	-10.4871
▁없는것같	-10.4872
별로없는	-10.4872
답다	-10.4872
바른	-10.4873
버리자	-10.4873
▁개보지년	-10.4873
자본	-10.4873
▁불과	-10.4874
▁명분	-10.4874
▁엄청나	-10.4874
하지말라	-10.4874
▁한씨	-10.4874
공돌이	-10.4875
▁없어진	-10.4875
▁자르	-10.4877
▁뭐래	-10.4877
떨이	-10.4877
났네	-10.4879
▁야구	-10.4879
▁미포함	-10.4879
친다	-10.488
드라이	-10.488
역갤	-10.488
▁철들	-10.4882
함께	-10.4882
▁그런말	-10.4882
수준이	-10.4883
5000	-10.4884
이재명	-10.4884
▁다름	-10.4885
▁아니잖아	-10.4886
▁떠들	-10.4887
창렬	-10.4889
▁도와	-10.489
들어온	-10.4891
▁운동	-10.4891
다니면	-10.4891
죽거나	-10.4892
▁무상	-10.4892
단련	-10.4892
▁거제	-10.4894
▁다수는	-10.4896
▁아따	-10.4897
초밥	-10.4897
▁치노	-10.4898
▁진정성	-10.4899
▁지잡	-10.4899
벌리는	-10.49
음파	-10.49
▁읽기	-10.4901
출판	-10.4902
▁받아라	-10.4903
마셔	-10.4903
▁호주에서	-10.4905
▁잘벌	-10.4905
먹기	-10.4905
▁괜찮다	-10.4905
선교	-10.4905
운데	-10.4907
프리	-10.4907
모습	-10.4907
▁답네	-10.4908
고갑니다	-10.4909
줬나	-10.491
▁살인	-10.491
아침부	-10.491
▁확장	-10.4911
장관	-10.4912
▁조까	-10.4912
▁닥치	-10.4912
▁석자	-10.4912
통으로	-10.4913
▁안되는데	-10.4913
▁말해	-10.4913
▁않는다	-10.4913
▁이었는데	-10.4913
▁혼내	-10.4914
▁잇지	-10.4914
▁동급	-10.4916
▁적자보	-10.4916
알아보	-10.4917
장비	-10.4917
시간대	-10.4918
틀렸	-10.4919
▁머구	-10.492
▁얘기하고	-10.492
▁하는거냐	-10.4923
▁안넘	-10.4924
▁빵빵	-10.4926
▁만인	-10.4926
▁뽑아	-10.4927
,,,	-10.4928
▁분노	-10.4928
▁답이없	-10.4929
▁스시	-10.493
▁이불	-10.493
소설	-10.493
노답	-10.493
▁범죄자들	-10.4931
▁싶음	-10.4931
▁만선	-10.4931
두노	-10.4931
▁공장가	-10.4932
연대	-10.4933
▁순위	-10.4933
▁다르지	-10.4933
▁사무	-10.4933
▁설명을	-10.4933
▁터는	-10.4935
▁가만히있	-10.4935
▁봤을	-10.4935
반달	-10.4937
▁전라도인	-10.4937
▁나오지않	-10.4938
▁까노	-10.4939
▁맞는거	-10.494
▁지식	-10.4941
▁호로	-10.4943
▁기다	-10.4944
▁부르	-10.4945
먹는다고	-10.4946
▁당한거	-10.4947
▁제대	-10.4947
▁차이가	-10.4948
▁팩트임	-10.4949
커여	-10.4949
▁힘을	-10.495
▁이겨	-10.495
▁안봄	-10.4951
▁장애	-10.4951
맛이지	-10.4954
촌이	-10.4955
▁버러지들	-10.4955
▁중견이	-10.4956
▁유니	-10.4956
▁이제부터	-10.4956
▁와우	-10.4956
▁그분들	-10.4957
지랄하길래	-10.496
▁작게	-10.496
▁택	-10.4961
하고싶다	-10.4961
▁좋아보이	-10.4962
투명	-10.4962
▁상어	-10.4963
▁취업이	-10.4964
▁전당	-10.4965
▁도장	-10.4965
▁금수저	-10.4966
소니	-10.4966
엇음	-10.4967
▁바뀐거	-10.4968
▁애들이라	-10.4968
신청	-10.4968
▁알았다	-10.4968
▁개이득이	-10.4969
▁좋냐	-10.4969
▁잡으려	-10.497
미안해	-10.497
자리에	-10.497
래미	-10.497
돼지들	-10.4971
고있어	-10.4971
▁돌아서	-10.4972
▁쳐먹어	-10.4973
▁생활비	-10.4973
▁기업	-10.4974
▁낳	-10.4975
▁청년	-10.4977
▁선생님이	-10.4978
가운데	-10.4978
▁그놈들	-10.4978
▁팀	-10.4979
▁다른데	-10.4979
▁닮았	-10.4979
▁보내서	-10.4979
벌림	-10.4981
▁시스템은	-10.4982
▁일본인들	-10.4982
▁이승	-10.4983
킨거	-10.4984
▁숙	-10.4984
수료	-10.4987
너덜	-10.4988
▁환상	-10.4988
▁맥	-10.4989
구절	-10.4989
▁문명	-10.4989
▁송장	-10.4989
▁카라	-10.4989
▁쑤	-10.4989
▁효과	-10.4989
▁에라이	-10.499
▁겨울	-10.499
▁신문사	-10.499
▁브금	-10.499
▁드라마	-10.499
▁삭제	-10.499
▁굽	-10.499
▁컬	-10.499
▁겸	-10.499
▁&	-10.499
▁겉	-10.499
▁댄	-10.499
▁빰	-10.499
▁썼	-10.499
▁액	-10.499
▁엎	-10.499
▁잊	-10.499
▁쭈	-10.499
▁폴	-10.499
▁맷	-10.499
▁쉐	-10.499
▁씌	-10.499
▁광화문	-10.4991
▁바베크	-10.4991
▁자영업자	-10.4991
▁중앙대	-10.4991
▁엔지니어	-10.4991
▁AKSY	-10.4991
▁고향이	-10.4991
▁윈	-10.4991
▁드루킹	-10.4991
위반	-10.4991
▁아프리카	-10.4991
▁탈퇴	-10.4991
▁템	-10.4991
▁고졸	-10.4992
▁똥구멍	-10.4992
▁원탑	-10.4992
▁취향	-10.4992
진단	-10.4992
▁느껴짐	-10.4992
▁남았다	-10.4992
▁엘리트	-10.4993
▁쟤네	-10.4993
▁AV	-10.4993
▁챙기	-10.4993
▁착취	-10.4994
▁몇살이	-10.4994
▁돈사랑	-10.4994
▁힘내세요	-10.4995
순경	-10.4995
▁줘야지	-10.4995
▁현상	-10.4996
▁초딩	-10.4996
▁뛰어가	-10.4997
▁애매하	-10.4997
▁같기도	-10.4998
▁증상	-10.4998
▁표적	-10.4998
▁고딩	-10.4998
초기	-10.4998
▁쉬운	-10.4998
▁혼란	-10.4998
▁검색	-10.4999
▁부랄	-10.5
▁현관	-10.5
▁항공	-10.5
귀여	-10.5
▁지켜주	-10.5001
▁게시	-10.5001
▁금지해	-10.5001
던놈	-10.5001
▁바꾸	-10.5002
▁69	-10.5003
▁급여	-10.5003
▁평가	-10.5004
▁누드	-10.5004
▁재미있	-10.5005
▁꺼억	-10.5005
▁포항	-10.5005
▁라면	-10.5005
▁남해	-10.5005
▁청정	-10.5006
▁ᅲᅮ	-10.5007
불쌍해서	-10.5007
▁질문	-10.5007
첨	-10.5007
▁스티	-10.5008
▁단체	-10.5009
▁ᄃᄃᄃᄃ	-10.5009
받았다	-10.5009
▁중요하냐	-10.5009
포기한	-10.501
▁그런거지	-10.501
▁좆만한	-10.501
▁필요없고	-10.5011
▁합성	-10.5011
▁승제	-10.5012
▁국방	-10.5012
햇다는거	-10.5012
▁기관	-10.5012
▁유일	-10.5014
▁36	-10.5014
▁문씨	-10.5014
▁두부	-10.5015
부적	-10.5015
▁아니니까	-10.5015
▁누군데	-10.5015
▁존재	-10.5016
▁머라	-10.5017
▁고상	-10.5018
▁45	-10.5019
▁까지	-10.5019
따구	-10.5019
▁연금	-10.502
언니	-10.502
만났	-10.502
▁구미	-10.502
▁학원	-10.5021
▁맞지만	-10.5021
▁고생	-10.5022
▁컨트	-10.5022
착해	-10.5023
적분	-10.5024
▁75	-10.5024
연분	-10.5026
▁기어	-10.5026
▁기출	-10.5027
리잡	-10.5027
▁말려야	-10.5029
▁창고	-10.5029
셨다	-10.503
▁따지고	-10.503
귀엽노	-10.503
▁나이트	-10.503
썰어	-10.503
▁닮았네	-10.5032
▁요로	-10.5033
97	-10.5033
임금	-10.5034
▁아웃	-10.5035
▁홍보	-10.5036
▁되겠노	-10.5036
▁누리	-10.5036
▁너같은	-10.5036
잠바	-10.5037
▁부모	-10.5039
▁보이네요	-10.5041
▁나보고	-10.5041
▁맛있음	-10.5042
▁미래	-10.5042
▁나왔고	-10.5043
▁애국	-10.5043
음ᄏᄏ	-10.5044
▁나무	-10.5044
▁새로	-10.5044
▁대한민국이	-10.5045
▁클라	-10.5046
▁팩트로	-10.5046
▁씨발련이	-10.5046
▁마트	-10.5046
▁힘들다	-10.5047
현피	-10.5048
▁안맞	-10.5048
▁경제적	-10.5051
꼬치	-10.5054
▁안써	-10.5055
라케	-10.5056
▁살아야	-10.5059
▁안드	-10.5059
토토	-10.5061
▁구워	-10.5062
음식점	-10.5064
▁개성	-10.5064
▁현지	-10.5064
▁토나온	-10.5065
르르	-10.5067
고생	-10.5068
▁유입	-10.5069
▁부들	-10.5069
▁자랑	-10.5069
▁기간	-10.507
해본거	-10.507
▁폭도	-10.507
▁동성	-10.5072
▁알수없	-10.5072
▁복지	-10.5072
94	-10.5073
칠때	-10.5073
외적인	-10.5074
꼴이	-10.5077
꼴려	-10.508
▁명예가	-10.5081
▁보세요	-10.5081
따박	-10.5083
날이	-10.5085
▁사천	-10.5085
월드	-10.5086
말이다	-10.5087
크라	-10.5088
▁인민	-10.5089
▁상대로	-10.509
▁돌리	-10.509
남매	-10.509
제로	-10.5092
▁일해라	-10.5093
▁낳아	-10.5093
▁했겠지	-10.5093
▁따라다니	-10.5093
조합	-10.5096
▁불러	-10.5097
▁이대로	-10.5099
작정	-10.5102
▁나대네	-10.5103
▁막아	-10.5103
는척	-10.5103
▁꺼져라	-10.5105
▁장난치	-10.5106
▁우한	-10.5107
▁키스	-10.5107
▁못할걸	-10.5107
▁않나	-10.5109
▁무당	-10.5109
▁이글	-10.5113
▁기대	-10.5113
▁나누	-10.5113
공평	-10.5114
게이였	-10.5115
▁일진	-10.5115
▁도시	-10.5116
이쁨	-10.5118
역겹네	-10.5118
ᄉᄁ	-10.5119
닿는	-10.512
못봤다	-10.5121
▁따뜻한거	-10.5121
▁노리	-10.5122
▁정신나	-10.5122
성한	-10.5123
▁넣을	-10.5123
▁공부하	-10.5124
겠지만	-10.5124
▁호다	-10.5125
나홀	-10.5126
르다	-10.5126
▁아오	-10.5127
▁뇌가	-10.5127
주해	-10.5128
서열	-10.5129
우회	-10.5129
▁시위	-10.5131
▁속으로	-10.5134
서현	-10.5134
▁일이지	-10.5135
있는사람	-10.5135
▁*	-10.5139
▁사람인데	-10.5141
보이네	-10.5141
▁지구	-10.5141
▁이모	-10.5141
▁재수	-10.5143
▁싸게	-10.5143
성씨	-10.5145
도없다	-10.5145
▁먹지	-10.5146
빌리	-10.5149
▁아하	-10.515
문재	-10.515
▁모를	-10.5151
재는	-10.5151
▁집사	-10.5153
▁철수	-10.5156
▁컨	-10.5156
드네	-10.5157
정리하기	-10.5158
▁우스	-10.5158
쓰레기통	-10.5158
에미	-10.5159
입증	-10.516
낫네	-10.5162
▁진성	-10.5163
▁씹창	-10.5165
▁도요	-10.5165
▁싸던	-10.5166
▁것이고	-10.5167
▁다행	-10.5167
상호	-10.5168
조선인	-10.5169
▁차주	-10.5172
시간에	-10.5172
▁뒤져야	-10.5173
▁보정	-10.5174
▁안하냐	-10.5177
을거다	-10.5178
날수	-10.5181
▁지겨	-10.5182
진작	-10.5183
▁사는거	-10.5183
▁최대	-10.5184
▁저런애들	-10.5185
▁고생했	-10.5188
▁높다	-10.5188
자와	-10.519
개씨발	-10.5193
러감	-10.5195
까리	-10.5196
▁본점	-10.5197
▁통로	-10.52
▁재밌음	-10.5203
▁십	-10.5205
ᅲᅲᅲ	-10.5207
▁욕구	-10.5208
태어	-10.5208
것다	-10.5212
▁돌고	-10.5212
다기보	-10.5213
안나오네	-10.5214
▁나만	-10.5214
▁있겠	-10.5216
이터	-10.5217
▁의대	-10.5217
야해	-10.5217
인거야	-10.5218
마린	-10.5219
▁정자	-10.5219
난건	-10.5222
공군	-10.5224
할것	-10.5224
이있다	-10.5226
▁커지	-10.5228
써놓고	-10.523
빵한	-10.5232
▁;;	-10.5232
선에서	-10.5234
▁추천수	-10.5236
▁유기	-10.5236
▁설계	-10.5237
▁남들이	-10.5238
▁기운	-10.5239
공천	-10.5239
▁내신	-10.524
로카	-10.5241
▁2000	-10.5244
▁하는것	-10.5245
에너	-10.5246
▁하려는	-10.5248
▁교도	-10.5249
드라	-10.5253
▁정해	-10.5254
▁계정	-10.5255
▁만화	-10.526
줘도	-10.5263
▁따먹	-10.5263
듯한	-10.5264
먹는것	-10.5265
차량	-10.5267
살자	-10.5269
▁본성	-10.5275
▁발기	-10.5275
죽더라	-10.5277
▁사장	-10.5278
▁문제임	-10.528
구조	-10.5281
▁추위	-10.5284
의로운	-10.5285
그레이	-10.5285
치러	-10.5286
▁할말이	-10.5286
볼까	-10.529
▁경찰들	-10.5292
▁m	-10.5295
▁지랄하고	-10.5299
거였노	-10.53
▁했을	-10.53
▁이사	-10.5301
▁일본어	-10.5301
▁작가	-10.5302
폰으로	-10.5302
▁짱개새끼	-10.5303
▁강화	-10.5305
해산	-10.5307
▁인생을	-10.5308
▁강서	-10.5308
인체	-10.531
니면돼	-10.5312
전환	-10.5314
풀어	-10.5315
▁안한다	-10.5322
5%	-10.5323
기더	-10.5324
네트	-10.5328
▁능력이	-10.5328
부부	-10.5329
▁싸지	-10.5331
▁이새끼는	-10.5333
▁버려야	-10.5333
▁재주	-10.5337
거리는거	-10.5342
소리한다	-10.5346
면되는데	-10.5349
가는건	-10.535
▁좃같	-10.5351
있잖아	-10.5352
분에	-10.5352
이클	-10.5353
▁그거냐	-10.5355
안하는	-10.5357
▁먹은	-10.5358
▁조작이	-10.5359
군인이	-10.5364
▁몇살인	-10.5364
▁길어	-10.5365
▁기다리	-10.5368
▁지인	-10.5371
▁신라	-10.5373
▁진사	-10.5375
이시다	-10.5376
갔네	-10.5377
▁밀리	-10.5379
▁찬	-10.538
▁그림	-10.538
표시	-10.5381
▁달게	-10.5381
세력	-10.5382
왔네	-10.5382
동생이	-10.5384
▁있었고	-10.5389
▁안동	-10.539
▁안해주	-10.5392
▁ᄉᄁ	-10.5393
기로는	-10.5396
와야겠	-10.5397
▁잘생겼으	-10.5398
곳임	-10.5404
스테	-10.5408
▁보는데	-10.5409
▁구속	-10.5417
려줌	-10.5421
릴께	-10.5422
죽여야	-10.5423
15	-10.5425
근운동	-10.5427
▁갑을	-10.5427
▁추구	-10.5427
▁나니까	-10.5429
▁바래	-10.543
▁착각하는	-10.543
▁앞세	-10.5431
▁따져	-10.5431
년도부터	-10.5432
▁백수	-10.5432
야래	-10.5433
지영	-10.5435
▁내년	-10.5438
▁풍년이	-10.5438
국가	-10.544
▁부분이	-10.5441
▁삐	-10.5444
▁부서	-10.5445
▁오른	-10.5445
▁작아	-10.5449
▁깔려	-10.5449
▁논	-10.545
놓으	-10.5452
▁생김	-10.5453
▁감지	-10.5453
터진	-10.5458
▁엄	-10.5462
▁떨	-10.5463
사역	-10.5464
▁의견	-10.5465
좋아한다	-10.5465
▁느껴	-10.5465
▁시작도	-10.5466
▁동생이	-10.5468
▁들어와	-10.5469
▁의식	-10.5469
통에	-10.547
▁도둑	-10.5472
▁턱	-10.5472
▁I	-10.5472
▁객	-10.5472
▁맹	-10.5472
▁웅	-10.5472
▁뜸	-10.5472
▁브레이	-10.5472
▁종이	-10.5472
▁f	-10.5473
▁멸	-10.5474
전만	-10.5474
뿐이	-10.5481
▁들고있	-10.5482
줄께	-10.5483
됨ᄉᄀ	-10.5483
▁역할이	-10.5484
▁글로	-10.5485
오게	-10.5487
▁천지	-10.5488
가능하냐	-10.5488
▁될듯	-10.5488
▁허가	-10.5488
▁짤라	-10.5492
치냐	-10.5492
▁시바	-10.5493
▁족	-10.5494
교리	-10.5496
▁켜	-10.5497
▁입으로	-10.5499
▁감사해	-10.55
관이	-10.5501
▁썩어	-10.5501
만하다	-10.5504
▁조센	-10.5507
▁자라	-10.5511
▁명도	-10.5512
지났	-10.5514
치같은거	-10.5515
브라	-10.5517
▁가르치	-10.5521
▁가져가	-10.5522
이후	-10.5524
▁대표	-10.5526
▁시계	-10.5526
하고싶	-10.5528
▁이것도	-10.5529
▁된다는	-10.553
▁쳐다	-10.5538
▁가자	-10.5539
▁일할	-10.5547
조카	-10.5549
스물	-10.555
삼아	-10.555
복음	-10.555
했던거	-10.5557
시켜주	-10.5563
▁지리	-10.5565
거기까지	-10.5569
겨움	-10.5577
▁찍는	-10.558
드만	-10.5581
석이	-10.5582
심해	-10.5583
인으로	-10.5585
▁쓴거	-10.5586
소속	-10.5588
▁ᄏᄏᄏᄏ개	-10.559
분이라	-10.5591
부분에서	-10.5592
차선	-10.5593
▁받기	-10.5597
▁알게	-10.5598
▁달창	-10.5606
받음	-10.5607
바로	-10.5611
었어야	-10.5617
죄인	-10.5621
.........	-10.5622
▁전라	-10.5622
▁하더만	-10.5624
▁해보	-10.5626
정부	-10.5626
인것이	-10.5629
▁인상	-10.5631
한국인들	-10.5632
4,	-10.5635
아지	-10.5637
▁내는데	-10.5637
▁21	-10.5638
▁찍고	-10.5639
돈이	-10.5643
마운	-10.5643
들인데	-10.5658
▁니기	-10.5658
▁크로	-10.5663
어케받	-10.5664
▁안돌아	-10.5665
맞으니	-10.5669
만남	-10.5673
짓이고	-10.5679
16	-10.5682
새끼야ᄏᄏᄏᄏ	-10.5685
▁같냐	-10.5687
야스	-10.569
부지	-10.5692
▁던지	-10.5695
좋지만	-10.5702
중고	-10.5705
갈까	-10.5711
▁보이네	-10.5718
로드	-10.5722
▁묻어	-10.5724
▁걸어	-10.5727
꺼면	-10.5733
▁14	-10.5734
때가	-10.5736
▁똑같은	-10.5737
▁놀이	-10.5739
찍어	-10.574
개드립	-10.5745
▁잘함	-10.5745
▁주는거	-10.5746
▁아니네	-10.5749
의롭	-10.5753
이렇게까지	-10.5756
정재	-10.576
▁나라의	-10.5762
선수	-10.5772
한약	-10.5772
▁읽	-10.5774
하시네요	-10.5774
▁밀어	-10.5775
▁모아	-10.5779
▁닥	-10.5779
되더라	-10.5779
반도	-10.5781
▁에고	-10.5783
잡듯	-10.5788
해보이	-10.5794
신거	-10.5795
버거	-10.5795
지기	-10.5796
▁내용이	-10.5798
된건	-10.5807
심하네	-10.5818
▁가족이	-10.5819
▁이때	-10.5827
▁지랄을	-10.5827
쪽이	-10.5831
포함	-10.5831
여서	-10.5838
손이	-10.5846
rea	-10.5849
▁한국보다	-10.585
소수	-10.5856
ᄊᄒᄐᄎ	-10.5857
▁댓글이	-10.5859
▁열받	-10.5859
▁다수	-10.5862
▁추가	-10.5862
씨는	-10.5864
▁관련자	-10.5864
마시	-10.5865
있겠지	-10.5866
▁한다는	-10.587
좆같다	-10.587
팩트인데	-10.5871
▁할지	-10.5873
져가	-10.588
▁차단	-10.5883
▁전투	-10.5883
였구나	-10.5888
▁대답이	-10.5893
▁뽑은	-10.5901
▁일본에서	-10.5903
라우	-10.5905
르는거	-10.5912
▁할수	-10.5916
▁않으	-10.5921
중요하지	-10.5923
▁넘들	-10.5931
▁저런사람	-10.5933
한적	-10.5935
▁적은	-10.5936
방식	-10.5936
▁조건이라	-10.5936
▁뭐하는거	-10.5939
지키고	-10.5944
▁찍었	-10.5944
▁왜저	-10.5955
▁좆치	-10.5957
▁완벽한	-10.596
할수있는	-10.5961
▁협	-10.5962
만점	-10.5964
로마	-10.5972
▁뉴스보	-10.5974
▁개소리는	-10.5976
▁하라고	-10.5978
▁두고	-10.5978
▁괴	-10.5987
만있어	-10.5995
▁F	-10.5995
▁앱	-10.5995
▁짧	-10.5995
▁ᅩ	-10.5995
▁춤	-10.5995
▁M	-10.5995
두자	-10.6
▁픽	-10.6002
▁널	-10.6003
▁디	-10.6007
▁요금	-10.6008
중반	-10.6009
낸다	-10.6018
▁예수	-10.6019
노예들	-10.6022
▁나름이	-10.6024
례한국당	-10.603
▁홀	-10.6034
바라지	-10.6039
▁할수가	-10.6044
▁가버	-10.6046
동원	-10.6054
머가	-10.6055
▁지이이이	-10.6057
갈보	-10.6066
▁재는	-10.6067
▁이기는	-10.6072
▁니네	-10.6074
친구랑	-10.6074
노트	-10.6078
▁보내주	-10.6086
요원	-10.6098
기허	-10.6102
▁가능할	-10.6103
한거야	-10.6109
▁곳이	-10.6113
모르	-10.613
겠다는	-10.613
죽어라	-10.6135
▁미만	-10.6142
▁알수	-10.6143
▁생각해봐	-10.615
~!	-10.6161
▁십년	-10.6165
한건데	-10.6172
▁내림	-10.6173
▁???	-10.6182
▁나온다	-10.6183
백수	-10.6187
외과	-10.6192
도박	-10.6197
▁l	-10.62
▁연예	-10.6205
생이	-10.6208
자중	-10.6227
▁아무도	-10.6236
내가	-10.6239
▁다녀	-10.6242
▁때문	-10.6242
▁장난이	-10.6243
오고	-10.6244
▁구라치	-10.6246
▁있기	-10.6253
▁답게	-10.6253
고나서	-10.6259
남이가	-10.6269
▁망하는	-10.6269
▁부대	-10.6275
▁박정희	-10.628
▁공장이	-10.6283
▁막가	-10.6289
▁가만	-10.6291
▁진도	-10.6292
들하고	-10.6294
대평가	-10.6302
강해	-10.6313
▁안해	-10.6316
올거	-10.6319
▁침착하	-10.6325
▁불가	-10.6328
▁말대로	-10.6333
▁사전	-10.6336
▁자부	-10.6342
▁씹고	-10.6353
▁오를	-10.6353
릴려	-10.6362
있을지	-10.6373
▁앉아있	-10.6384
▁조져야	-10.639
▁산다	-10.6392
씨발새끼	-10.6394
▁전라도가	-10.6394
▁털리	-10.6402
시세	-10.6407
▁할꺼	-10.641
비자	-10.6411
▁나오지	-10.6411
▁떡치	-10.6412
고참이	-10.6413
▁말한	-10.6431
거같음	-10.6432
▁할게	-10.6434
하시지	-10.6439
▁빠는새끼	-10.6445
▁안주	-10.6454
▁옹호하	-10.6455
▁살고싶	-10.6462
▁대구가	-10.6462
▁만들면	-10.6466
거죠	-10.6471
지터	-10.6472
▁수천	-10.6476
개그	-10.6488
▁일베새끼들	-10.6495
▁잘나	-10.6497
▁지네	-10.6498
▁거르는	-10.6504
▁대구는	-10.6507
되노	-10.6512
▁잡았	-10.6522
놓은	-10.6538
시키는데	-10.6547
▁할텐데	-10.6552
▁눈이	-10.6556
▁꾸	-10.6556
▁폐	-10.6557
▁콘	-10.6557
▁곡	-10.6557
▁벨	-10.6557
싶네	-10.6562
코리	-10.6563
미니	-10.6564
하는건가	-10.6564
▁사건이	-10.657
▁극혐하는	-10.6572
▁싶습니	-10.6573
▁제도	-10.6576
먹었는	-10.6591
▁문화	-10.6592
빠지는거	-10.6595
▁출신들	-10.6597
▁한번이	-10.6602
라인	-10.6611
▁그년	-10.6612
거같은데	-10.6616
▁실사	-10.6616
오타	-10.6617
아녀	-10.662
▁마크	-10.6623
▁온다	-10.663
▁하냐	-10.6634
날때	-10.664
▁써야	-10.6643
조마	-10.6644
기로	-10.6644
탓이	-10.6654
아놨	-10.6654
▁사냥	-10.6655
도산	-10.6655
상황에	-10.6666
▁남친이	-10.6676
▁선동하	-10.6685
당해	-10.6687
하는것이	-10.6697
▁뭐만	-10.6704
지않았냐	-10.6706
▁애새끼	-10.6713
대우	-10.6722
위가	-10.673
버려야	-10.6733
▁새	-10.6744
▁오이	-10.6751
▁자극적	-10.6756
으라고	-10.6763
자로	-10.677
애니	-10.6808
▁왜이	-10.6808
an	-10.6812
시간만	-10.6815
과정	-10.6816
▁바이	-10.6819
이냐고	-10.6823
▁사주	-10.6824
미가	-10.6825
▁아반	-10.6826
라함	-10.683
▁과학적	-10.6837
▁경기	-10.6842
생기	-10.685
명탐	-10.6873
려도	-10.6883
▁ᄋᄇ에	-10.6885
시는건	-10.6888
▁뭔소리	-10.6889
▁주적	-10.6893
▁하겠네	-10.6908
▁잘라	-10.691
선정	-10.6912
공주	-10.6915
단기	-10.6916
▁힘이	-10.6917
라잖	-10.692
▁주장	-10.692
▁빵에	-10.6938
▁찍다	-10.6949
는거고	-10.6966
감시	-10.6967
웃기다	-10.6975
시길	-10.6978
▁ca	-10.6993
▁분야	-10.7002
소리를	-10.7009
구가	-10.7016
▁아줌마들	-10.7017
▁씹새끼들	-10.7023
▁일베에	-10.7031
▁시켜먹	-10.7031
▁조사	-10.7034
구에	-10.7043
전이라	-10.7046
▁놈들이	-10.7046
민영	-10.7057
▁네이	-10.7064
죽어서	-10.7067
는사람	-10.7083
갈아	-10.7088
▁인사	-10.7097
직이야	-10.7108
개발	-10.7116
▁민족	-10.7116
▁하지도	-10.7119
공인	-10.7122
찐따라	-10.7129
가드	-10.7133
지니	-10.7136
▁살아가	-10.7147
▁할듯	-10.7152
▁C	-10.7154
▁범	-10.7156
사먹	-10.7167
▁크다	-10.7175
사람에게	-10.7176
▁신생	-10.7179
고사	-10.7194
▁안타깝네	-10.7196
▁때린	-10.7196
신가	-10.72
혀야	-10.7223
▁큰거	-10.7223
▁일상이	-10.7224
인해	-10.7234
데로	-10.7248
▁아냐	-10.7252
▁밑이	-10.7253
▁쓰려	-10.727
▁클	-10.7275
일성	-10.7292
▁잘못한	-10.7301
▁!!	-10.7302
▁그분	-10.7303
씹창	-10.7307
▁욕해	-10.7309
거기	-10.731
었군	-10.7314
▁열사	-10.7321
▁복싱에	-10.7329
▁올라오는	-10.7334
▁가을	-10.7334
▁살지말	-10.7335
않노	-10.7342
▁동작	-10.7378
먹겠다	-10.7387
자지	-10.7395
으러	-10.7396
▁넣었	-10.74
▁일베충들	-10.7403
머임	-10.743
해주고	-10.743
못하는거	-10.7434
▁남은	-10.745
nis	-10.749
▁작은	-10.7497
대선	-10.7525
님이	-10.7534
▁붙이	-10.7538
▁안되지	-10.7548
교수	-10.755
at	-10.7552
찍히	-10.7574
거였	-10.7578
사에	-10.7585
▁마치	-10.7587
보이	-10.7588
줬었	-10.759
나오네	-10.7591
▁있었지	-10.7599
타민	-10.7599
심이	-10.7606
▁술취	-10.7621
▁만한	-10.7641
고기	-10.7644
번에	-10.7652
들이네	-10.7656
▁한건	-10.7657
다이기야	-10.7671
▁극복	-10.7686
▁아임	-10.7687
다구	-10.7701
▁안나오는	-10.7704
▁좆된	-10.7704
▁죽이	-10.7724
▁결	-10.7728
운지	-10.7739
▁ᄇ	-10.774
크지	-10.7757
안산	-10.7786
고있	-10.7794
봤지	-10.7807
러간	-10.781
▁왕	-10.7826
스에	-10.7829
대에	-10.785
나리	-10.7875
▁여리	-10.7878
▁o	-10.7889
▁달라	-10.7892
▁가르쳐	-10.7896
▁살도	-10.7937
▁되겠	-10.7952
이거	-10.7978
▁안하	-10.8013
▁보이는	-10.8013
지내	-10.8019
ᄏᄏᄏᄒᄒᄏᄏᄏ	-10.804
구는	-10.8041
멍청	-10.8057
자의	-10.8064
한듯	-10.8064
잘아	-10.8083
▁위험해	-10.8104
▁비하라	-10.8131
색을	-10.816
있어	-10.8164
운동이	-10.8173
▁추천하	-10.8177
동거	-10.8181
▁상대하	-10.8185
▁재밌겠	-10.8218
환자	-10.8222
살어	-10.8233
86	-10.827
사업가	-10.8272
좋다	-10.8309
▁됐다	-10.831
▁희	-10.8312
▁사면	-10.8312
▁가고	-10.8316
보내고	-10.8319
▁안들어	-10.8323
▁의지	-10.8328
모양이	-10.8329
▁견	-10.833
이겠지	-10.8334
거같은	-10.8335
시대는	-10.8343
이드	-10.8349
▁배관	-10.8349
▁나아	-10.8356
▁그말	-10.8398
2000	-10.8411
▁욕할	-10.8414
주차장	-10.8431
줄알	-10.8436
▁블	-10.8445
▁몰랐네	-10.8464
▁븅신들	-10.8477
오지만	-10.8505
▁센	-10.8516
▁곤	-10.8537
잡는	-10.8548
▁다른거	-10.8554
▁안나	-10.8567
▁만드	-10.8587
한거다	-10.8592
해석이	-10.8604
안해	-10.8606
기술이	-10.8609
망이	-10.8616
질거	-10.8625
▁뽑으	-10.863
▁해줄	-10.8639
▁바쁜	-10.8639
밑에	-10.8648
이면서	-10.8659
▁이긴	-10.8668
마이	-10.8691
와이	-10.8709
ᄏᄏᄏᄏᄏᄀ	-10.8737
무한	-10.8738
시장에	-10.8762
기록	-10.8767
짓이라	-10.8768
탄하	-10.878
▁노력이	-10.879
▁습	-10.8808
교사	-10.8813
말하는	-10.8832
기전	-10.8839
무섭네	-10.8841
말이지	-10.8847
전사	-10.8861
▁공정	-10.8877
조아	-10.8895
좋다고	-10.8897
들이미	-10.8986
▁개웃기	-10.8997
▁난다	-10.8999
관공	-10.9019
▁말지	-10.9025
▁에도	-10.9027
건전	-10.9038
죽을	-10.9042
할일	-10.9042
백인이	-10.9087
▁뭔지	-10.9088
▁그런가	-10.91
▁반대하	-10.9109
사이	-10.9126
▁까면	-10.9128
▁고백해	-10.9129
라던데	-10.9152
터가	-10.9155
그러네	-10.9173
▁증	-10.9184
구로	-10.9194
하는것	-10.9202
▁인스타에	-10.9204
▁정은	-10.9204
▁쟤들	-10.9208
당히	-10.9208
겠구만	-10.9214
했을	-10.9221
▁유익하	-10.9224
▁안나오	-10.9251
▁못하잖	-10.9266
이름이	-10.9281
다님	-10.9319
입대	-10.9319
사상	-10.933
진것	-10.9335
방지	-10.9391
▁ᄂᄌ	-10.9392
▁공사	-10.9393
▁페	-10.9403
원전	-10.9406
사님	-10.9415
말구	-10.942
보아	-10.9425
▁한거라	-10.9432
▁되는거	-10.9474
는것이	-10.9474
망치는	-10.9489
인간들이	-10.9528
김치는	-10.9531
▁행	-10.9551
병신같은	-10.9554
이긴다	-10.9593
이기야	-10.9633
▁시도	-10.9658
5.8	-10.9659
동직	-10.9668
▁비하한	-10.9691
게임	-10.9737
신들	-10.9748
▁될것	-10.975
세기	-10.975
▁팔아야	-10.977
▁지지하	-10.9789
루타	-10.979
는다는	-10.9812
생겼다	-10.9841
▁거지새끼	-10.985
▁원하	-10.9863
봤다고	-10.9877
▁돈주	-10.9886
▁공부하면	-10.99
보지에	-10.9904
▁글이네	-10.992
영화	-10.9929
하시고	-10.9956
수익	-10.9965
▁사람색	-10.9965
르지	-10.9976
▁곳인	-10.9977
본색	-10.9986
▁얘기한	-11.0001
라는데	-11.0029
▁거부	-11.0041
▁성령	-11.0063
▁운영하	-11.0152
해보	-11.0162
▁심적	-11.0174
▁만큼	-11.0183
하겠다	-11.0217
▁주려	-11.0239
식기	-11.0342
을테	-11.0363
▁용접하	-11.038
의한	-11.038
▁무식	-11.0384
잡을	-11.0398
▁자살했	-11.0399
13	-11.0399
모르는	-11.0467
안하	-11.0475
▁현실적	-11.0518
잖	-11.0521
정신	-11.0522
▁곳에	-11.0525
▁저말	-11.0527
▁당연하	-11.0538
왜구	-11.057
▁올라오	-11.0582
표정이	-11.0596
▁용접하지	-11.0608
배우	-11.0617
린거임	-11.0625
▁억울하다	-11.0656
시고	-11.0659
간다고	-11.0729
se	-11.0757
세상에	-11.0769
▁깎는	-11.0775
당할수	-11.0798
▁결혼하	-11.0813
▁기술자	-11.0833
취했	-11.0844
탐정	-11.0846
▁개백	-11.0866
상하	-11.0889
▁해외에	-11.0893
작동	-11.0922
않았냐	-11.0942
▁안했	-11.0951
▁피라	-11.096
약점	-11.1022
▁저런년	-11.1026
▁째	-11.1047
▁같아	-11.1055
었잖아	-11.1076
▁거라	-11.1105
~~~~~~	-11.1128
이였	-11.1134
외상	-11.1144
레스	-11.1155
먹으라	-11.1176
▁없는거	-11.118
어디에	-11.1181
반데	-11.1199
▁ᄌ같	-11.1215
리고싶다	-11.1224
목적이	-11.1237
중이라	-11.1272
애미가	-11.1282
화되	-11.1291
▁없애야	-11.1375
▁g	-11.1381
▁언론에	-11.1403
▁오겠	-11.1436
▁피해	-11.1444
▁사려	-11.1459
시까	-11.1467
▁침착	-11.1477
했었는데	-11.1527
▁정신적	-11.1529
▁사이에	-11.1532
께요	-11.1535
박정희만	-11.1542
려야	-11.1548
▁무너	-11.1549
▁돈가	-11.1568
각하네	-11.1573
▁안찍	-11.1583
▁다른사람	-11.1598
구단	-11.1608
인생도	-11.1615
▁병신이	-11.1624
졌노	-11.1635
으세요	-11.1643
리는곳	-11.1665
조선	-11.1683
사람들	-11.1685
잘하고	-11.169
▁봐라	-11.1694
린겁니다	-11.1708
▁나빠지	-11.1709
당하	-11.1711
▁당했	-11.1718
어있는	-11.1721
▁실시	-11.1724
져야함	-11.1725
기없	-11.1768
지나	-11.1774
하라	-11.1784
▁일베가	-11.1794
20	-11.1846
▁기도	-11.1855
라나	-11.1858
인화	-11.1859
▁아닥	-11.1871
봐주	-11.1875
모양	-11.1899
▁일제	-11.1909
이라니까	-11.1912
보시	-11.1914
▁통계에	-11.1931
부라	-11.196
싸먹	-11.199
하라는	-11.2055
▁>	-11.2056
내려줘	-11.2059
▁특징이	-11.2066
글자	-11.2071
▁인증하	-11.2084
립니다	-11.2113
격하	-11.2124
▁행동하	-11.2154
▁안받	-11.2185
돌아가	-11.2202
벌레	-11.2213
축하	-11.2217
ᄏᄀ	-11.2232
우동	-11.2236
▁중요하	-11.2247
▁맞음ᄏᄏ	-11.228
▁모른	-11.2284
▁작으	-11.2344
놓	-11.2351
ᄁ	-11.2352
▁화장실	-11.2355
▁때리	-11.2369
▁존나지	-11.2377
모순	-11.2382
할걸	-11.2397
▁조금만	-11.2398
름이네	-11.2417
좋아졌	-11.2432
천사	-11.2433
다는거냐	-11.2446
까는거	-11.2469
치인데	-11.2489
왔는데	-11.2495
ᄒᄐᄎ	-11.2507
놔야	-11.2529
일베라	-11.2541
▁잘하시	-11.2551
en	-11.2554
▁경찰대	-11.2559
가더라	-11.2574
았던	-11.2592
▁????	-11.2621
▁과거에	-11.2625
차원	-11.2644
▁병신년	-11.268
▁광주에	-11.2688
수업	-11.2703
같긴	-11.2753
시충	-11.2758
회화	-11.2759
▁개잡	-11.2801
물적	-11.2826
부를	-11.283
있다고	-11.283
잇어	-11.2831
듯ᄏᄏᄏ	-11.2833
압이	-11.2861
르냐	-11.2895
만받	-11.293
▁거짓	-11.2938
만으로	-11.2944
▁나오던	-11.3006
려한	-11.3061
덩	-11.3081
차단해	-11.3083
러운	-11.309
▁좆중	-11.3096
였노	-11.3107
야한다고	-11.3117
▁복근	-11.313
▁생각했	-11.3166
▁주면	-11.3177
치가	-11.321
에있는	-11.3219
구속되	-11.3251
어보	-11.3258
장하	-11.3278
미안하	-11.3286
대생	-11.3316
울나라	-11.3328
▁나오길	-11.3344
었구나	-11.3345
개미	-11.3375
버러지	-11.3382
탓	-11.3398
▁아니구	-11.345
▁없으	-11.3494
54	-11.3503
저런것	-11.3511
한남자	-11.3522
이노ᄏᄏᄏᄏᄏ	-11.3524
이라던데	-11.3533
이한테	-11.3539
같	-11.3541
있을	-11.3554
mo	-11.356
▁이새	-11.3563
겼	-11.3568
간듯	-11.3573
~~!!!	-11.3588
기집	-11.3607
으나	-11.3616
법이다	-11.3621
▁군인	-11.3625
야겠네	-11.3632
▁대대	-11.365
기운이	-11.3655
같다	-11.3665
▁대본	-11.3669
하려니	-11.3682
준다는	-11.3683
▁사람새끼	-11.3688
바라	-11.3695
별로	-11.3709
여자들	-11.3709
▁착각	-11.3728
*	-11.373
결혼	-11.3734
돼지	-11.3734
화된	-11.3742
▁할말	-11.3751
▁개빡	-11.3753
계사	-11.3761
리는거임	-11.377
래요	-11.377
자들한테	-11.3772
닿	-11.3774
라고하	-11.3794
▁취하	-11.3794
싫어하	-11.3825
오르	-11.3839
▁알릴	-11.3847
▁써놓	-11.3848
스타냐	-11.3849
관적	-11.3858
리겠	-11.3885
거라고	-11.39
밀	-11.39
▁따뜻	-11.3907
맞아	-11.3909
갔	-11.3919
야죠	-11.393
첨부	-11.3936
▁버티는	-11.394
▁케	-11.3943
▁알았네	-11.3949
연결	-11.3967
떡	-11.3983
전투	-11.3986
복싱	-11.4
일군	-11.4001
않	-11.4008
놀	-11.4011
언론에	-11.4015
등해	-11.4018
못하	-11.4019
지랄	-11.4026
지년들	-11.4034
택	-11.4036
휘	-11.4039
▁높으니	-11.4039
두루	-11.4045
확	-11.4053
▁뭐했는	-11.4054
항공	-11.4061
숙	-11.4062
능력	-11.4063
팀	-11.4068
개지랄	-11.4068
착각하는	-11.4068
ᄃᄃᄃᄃ	-11.4069
만들면	-11.4069
템	-11.407
사건이	-11.407
안맞	-11.407
윈	-11.4071
힘내세요	-11.4071
AKSY	-11.4071
아프리카	-11.4071
중앙대	-11.4071
자영업자	-11.4071
광화문	-11.4071
중요하냐	-11.4071
엔지니어	-11.4071
바베크	-11.4071
겸	-11.4071
굽	-11.4071
맷	-11.4071
빰	-11.4071
쉐	-11.4071
씌	-11.4071
액	-11.4071
잊	-11.4071
쭈	-11.4071
컬	-11.4071
댄	-11.4071
썼	-11.4071
엎	-11.4071
겉	-11.4071
엘리트	-11.4071
똥구멍	-11.4071
폴	-11.4072
맥	-11.4072
쑤	-11.4072
닮았네	-11.4072
&	-11.4072
같기도	-11.4072
탈퇴	-11.4073
씨발련이	-11.4073
애매하	-11.4074
남았다	-11.4075
알수없	-11.4075
맛있음	-11.4076
고향이	-11.4077
느껴짐	-11.4077
살아가	-11.4078
드루킹	-11.4078
누군데	-11.4078
취향	-11.4079
AV	-11.408
re	-11.4082
원탑	-11.4082
착취	-11.4082
사랑이	-11.4083
▁보잘	-11.4084
경찰	-11.4084
했겠지	-11.4085
포항	-11.4086
신문사	-11.4087
밖	-11.4088
좆만한	-11.4088
뽑아	-11.4089
▁이런새끼	-11.409
곱	-11.4091
혼란	-11.4091
쉬운	-11.4092
나이트	-11.4093
▁잘가	-11.4093
▁부끄	-11.4093
초딩	-11.4094
경찰관	-11.4094
45	-11.4095
그런	-11.4095
않는다	-11.4096
69	-11.4096
ᄀᄉ	-11.4098
본거	-11.4098
▁바라	-11.4099
드라마	-11.41
푸르	-11.4101
슈	-11.4101
아니였	-11.4101
챙기	-11.4102
기술직	-11.4102
마인드	-11.4103
퇴	-11.4104
최대	-11.4107
▁그레	-11.4107
안된	-11.4109
부랄	-11.411
복사	-11.4112
삭제	-11.4113
말려야	-11.4113
썰	-11.4114
현관	-11.4114
75	-11.4115
멍	-11.4117
바꾸	-11.4117
쳐먹어	-11.4118
검색	-11.4119
존재	-11.4122
홍보	-11.4122
귀천이	-11.4124
공부못	-11.4124
대한민국이	-11.4124
옆	-11.4125
엠	-11.4128
귀찮아	-11.4128
숨	-11.413
다니면서	-11.413
꺼져라	-11.413
노숙자	-11.4131
브금	-11.4131
많으면	-11.4131
짠	-11.4132
콩	-11.4132
대깨문	-11.4133
거짓말	-11.4133
G	-11.4133
앎	-11.4133
캠	-11.4133
콧	-11.4133
햐	-11.4133
뼈	-11.4133
냉	-11.4133
세입자	-11.4133
되겠노	-11.4133
걔	-11.4133
아저씨	-11.4133
귀엽다	-11.4133
개독들	-11.4133
낮	-11.4134
ᄎᄎ	-11.4134
스트레스	-11.4134
닮	-11.4136
패딩	-11.4137
모른다	-11.4137
털리	-11.4138
엠생	-11.4138
영역	-11.4138
미만잡	-11.4139
36	-11.4139
연예인	-11.4141
확인	-11.4141
배워라	-11.4141
짱개	-11.4142
▁개이득	-11.4142
않을	-11.4143
싶어서	-11.4143
힘들다	-11.4143
ᅲᅮ	-11.4144
탑	-11.4145
아이돌	-11.4145
0000	-11.4148
짱	-11.4149
▁선생님	-11.4151
z	-11.4152
노무현	-11.4152
하셔	-11.4153
직업이	-11.4155
겨울	-11.4155
김밥	-11.4156
▁당할	-11.4157
미친놈	-11.4159
죽음	-11.416
버닝썬	-11.416
원숭이	-11.416
븅신아	-11.416
올림픽	-11.416
땡	-11.416
굿	-11.416
넓	-11.416
쌀	-11.416
쌓	-11.416
재앙이	-11.416
솔	-11.416
깜	-11.416
남친	-11.416
싹	-11.416
수저야	-11.416
시스템	-11.416
전기차	-11.4161
빙신아	-11.4161
병신새끼야	-11.4162
가즈아	-11.4162
했습니다	-11.4163
연금	-11.4164
클론	-11.4165
처맞	-11.4166
tv	-11.4166
청정	-11.4167
특징	-11.4167
받으	-11.4168
스펙	-11.417
애국	-11.4171
없었	-11.4171
▁개소리하	-11.4172
합성	-11.4172
논란	-11.4172
무식한	-11.4172
채우	-11.4175
부들부들	-11.4175
대통령	-11.4175
ᄊ	-11.4175
빅	-11.4175
최	-11.4175
상관없	-11.4178
묻	-11.4179
입장에	-11.4179
링크	-11.4179
취업	-11.4179
대단한	-11.4179
확실	-11.418
아웃	-11.418
꿀	-11.4181
찾	-11.4183
그것	-11.4183
500	-11.4184
택시	-11.4184
본다	-11.4184
두부	-11.4184
쉽	-11.4185
혹	-11.4185
확률	-11.4185
조선족	-11.4185
주예지	-11.4186
효과	-11.4187
문씨	-11.4187
없애	-11.4188
또라이	-11.4188
들어간	-11.4188
그림	-11.4188
여친	-11.4189
쳐맞	-11.4189
것같다	-11.4189
산대	-11.419
비타민	-11.419
좆병신	-11.419
민주당	-11.4192
ᄌᄌᄇ	-11.4192
첫	-11.4192
닉	-11.4192
좃	-11.4194
닭	-11.4204
높	-11.4208
꼭	-11.4213
뭘	-11.4214
뭔	-11.4222
렬	-11.4277
람	-11.4406
탐	-11.4423
뻐	-11.457
큼	-11.458
둑	-11.4587
랐	-11.4596
껴	-11.4646
깝	-11.4667
챙	-11.4682
펙	-11.4682
콜	-11.4689
닐	-11.4699
쪼	-11.4706
뿔	-11.4707
댔	-11.471
킬	-11.4712
끔	-11.4713
딘	-11.4714
꿔	-11.4715
ᄎ	-11.4716
퀴	-11.4716
떻	-11.4717
례	-11.4718
룸	-11.472
훈	-11.4722
꺄	-11.4722
낌	-11.4722
뮤	-11.4722
냄	-11.4723
쫄	-11.4723
므	-11.4723
쪕	-11.4724
옹	-11.4724
☜	-11.4724
中	-11.4724
人	-11.4724
黄	-11.4724
겔	-11.4724
빢	-11.4724
‘	-11.4724
’	-11.4724
☞	-11.4724
녓	-11.4724
늬	-11.4724
닛	-11.4724
램	-11.4724
맵	-11.4724
뱉	-11.4724
빗	-11.4724
뻣	-11.4724
삥	-11.4724
숀	-11.4724
쓉	-11.4724
얄	-11.4724
옶	-11.4724
웁	-11.4724
윾	-11.4724
잽	-11.4724
쩡	-11.4724
쭝	-11.4724
츤	-11.4724
깍	-11.4724
굵	-11.4724
낑	-11.4724
늏	-11.4724
먄	-11.4724
묘	-11.4724
믹	-11.4724
빕	-11.4724
뺴	-11.4724
잏	-11.4724
컵	-11.4724
햄	-11.4724
<	-11.4724
[	-11.4724
]	-11.4724
j	-11.4724
×	-11.4724
ɑ	-11.4724
ː	-11.4724
༼	-11.4724
༽	-11.4724
ᄡ	-11.4724
ᅡ	-11.4724
ᅣ	-11.4724
ᅭ	-11.4724
—	-11.4724
☺	-11.4724
♡	-11.4724
新	-11.4724
海	-11.4724
美	-11.4724
誠	-11.4724
갇	-11.4724
갭	-11.4724
갯	-11.4724
갸	-11.4724
걀	-11.4724
걌	-11.4724
겄	-11.4724
겅	-11.4724
겜	-11.4724
곯	-11.4724
곰	-11.4724
곸	-11.4724
굔	-11.4724
굼	-11.4724
궈	-11.4724
궜	-11.4724
귄	-11.4724
긔	-11.4724
깁	-11.4724
깅	-11.4724
깊	-11.4724
깟	-11.4724
깸	-11.4724
꺽	-11.4724
껏	-11.4724
꿕	-11.4724
꿨	-11.4724
꿰	-11.4724
뀔	-11.4724
낭	-11.4724
낯	-11.4724
낼	-11.4724
넋	-11.4724
넛	-11.4724
넵	-11.4724
넼	-11.4724
놧	-11.4724
눕	-11.4724
눙	-11.4724
늠	-11.4724
닙	-11.4724
닦	-11.4724
닫	-11.4724
댁	-11.4724
댈	-11.4724
댑	-11.4724
댜	-11.4724
덥	-11.4724
덧	-11.4724
덴	-11.4724
델	-11.4724
뎨	-11.4724
돋	-11.4724
돔	-11.4724
돟	-11.4724
돠	-11.4724
됫	-11.4724
됴	-11.4724
둣	-11.4724
듦	-11.4724
듳	-11.4724
듸	-11.4724
딥	-11.4724
땀	-11.4724
땃	-11.4724
떳	-11.4724
똘	-11.4724
뚫	-11.4724
뜷	-11.4724
띡	-11.4724
띤	-11.4724
띵	-11.4724
랖	-11.4724
뤄	-11.4724
뤼	-11.4724
릅	-11.4724
릿	-11.4724
맴	-11.4724
멕	-11.4724
멜	-11.4724
멱	-11.4724
뭇	-11.4724
뮬	-11.4724
및	-11.4724
밴	-11.4724
봊	-11.4724
봘	-11.4724
붉	-11.4724
붐	-11.4724
붓	-11.4724
븀	-11.4724
빱	-11.4724
뺀	-11.4724
뺑	-11.4724
뻤	-11.4724
뻬	-11.4724
뽀	-11.4724
뽈	-11.4724
삿	-11.4724
샘	-11.4724
샛	-11.4724
샬	-11.4724
셋	-11.4724
셜	-11.4724
셧	-11.4724
셴	-11.4724
솎	-11.4724
솜	-11.4724
쇠	-11.4724
쇳	-11.4724
숍	-11.4724
숱	-11.4724
숲	-11.4724
쉰	-11.4724
쉴	-11.4724
쉼	-11.4724
슌	-11.4724
슐	-11.4724
싺	-11.4724
쌌	-11.4724
썪	-11.4724
썬	-11.4724
쎔	-11.4724
쏴	-11.4724
쒱	-11.4724
쓱	-11.4724
씰	-11.4724
씻	-11.4724
씾	-11.4724
앨	-11.4724
얀	-11.4724
얽	-11.4724
엊	-11.4724
엤	-11.4724
왈	-11.4724
욧	-11.4724
웜	-11.4724
웡	-11.4724
웩	-11.4724
윽	-11.4724
읏	-11.4724
읔	-11.4724
잃	-11.4724
잣	-11.4724
잤	-11.4724
잦	-11.4724
잭	-11.4724
잰	-11.4724
잴	-11.4724
쟌	-11.4724
쟨	-11.4724
젛	-11.4724
졵	-11.4724
좁	-11.4724
좟	-11.4724
죤	-11.4724
줍	-11.4724
줭	-11.4724
줴	-11.4724
쥼	-11.4724
즤	-11.4724
짖	-11.4724
쨋	-11.4724
쨔	-11.4724
쪙	-11.4724
쫓	-11.4724
쭉	-11.4724
쭐	-11.4724
쯔	-11.4724
찜	-11.4724
쳣	-11.4724
췄	-11.4724
츄	-11.4724
캅	-11.4724
캔	-11.4724
컥	-11.4724
켠	-11.4724
켯	-11.4724
쾈	-11.4724
녔	-11.4724
뎃	-11.4724
뚱	-11.4724
뭣	-11.4724
숟	-11.4724
쨌	-11.4724
넥	-11.4724
뒀	-11.4724
뚤	-11.4724
멤	-11.4724
벅	-11.4724
볐	-11.4724
씁	-11.4724
죗	-11.4724
컸	-11.4724
콕	-11.4724
뻡	-11.4724
쌧	-11.4724
얔	-11.4724
즁	-11.4724
캌	-11.4724
켄	-11.4724
콬	-11.4724
힛	-12.8324
흉	-12.8325
훌	-12.8326
혈	-12.8327
핥	-12.8328
폄	-12.8329
팟	-12.833
팝	-12.8331
튈	-12.8332
톡	-12.8333
쿼	-12.8334
쾅	-12.8335
컹	-12.8336
췩	-12.8337
춰	-12.8338
챘	-12.8339
즌	-12.834
줏	-12.8341
웰	-12.8342
왼	-12.8343
앵	-12.8344
쌩	-12.8345
뿟	-12.8346
뼛	-12.8347
뵙	-12.8348
볶	-12.8349
밍	-12.835
뮨	-12.8351
뭉	-12.8352
몆	-12.8353
맙	-12.8354
륭	-12.8355
룹	-12.8356
떴	-12.8357
땟	-12.8358
딨	-12.8359
딧	-12.836
됬	-12.8361
낚	-12.8362
꽐	-12.8363
꽃	-12.8364
껌	-12.8365
겻	-12.8366
걷	-12.8367
ᅥ	-12.8368
ᄄ	-12.8369
Z	-12.837
훼	-12.8371
훔	-12.8372
헛	-12.8373
펨	-12.8374
펠	-12.8375
팁	-12.8376
튄	-12.8377
툭	-12.8378
쿵	-12.8379
쿄	-12.838
첩	-12.8381
쫌	-12.8382
짭	-12.8383
짬	-12.8384
왤	-12.8385
쏠	-12.8386
슝	-12.8387
숫	-12.8388
뺏	-12.8389
밋	-12.839
뢰	-12.8391
둔	-12.8392
눠	-12.8393
뀌	-12.8394
꽂	-12.8395
꼽	-12.8396
껑	-12.8397
굶	-12.8398
흠	-12.8399
흐	-12.84
횡	-12.8401
헐	-12.8402
텨	-12.8403
찢	-12.8404
옳	-12.8405
쌈	-12.8406
숏	-12.8407
셉	-12.8408
셀	-12.8409
뷔	-12.841
붕	-12.8411
봅	-12.8412
밝	-12.8413
륙	-12.8414
롬	-12.8415
렛	-12.8416
띄	-12.8417
늦	-12.8418
놐	-12.8419
녁	-12.842
뀐	-12.8421
꽤	-12.8422
갠	-12.8423
흙	-12.8424
흑	-12.8425
혁	-12.8426
즐	-12.8427
엌	-12.8428
쏘	-12.8429
뻔	-12.843
벤	-12.8431
맡	-12.8432
덮	-12.8433
녹	-12.8434
낙	-12.8435
끊	-12.8436
깡	-12.8437
흔	-12.8438
펭	-12.8439
캬	-12.844
샌	-12.8441
빛	-12.8442
밟	-12.8443
멋	-12.8444
멀	-12.8445
뒈	-12.8446
늙	-12.8447
끗	-12.8448
헤	-12.8449
퓨	-12.845
캡	-12.8451
측	-12.8452
젖	-12.8453
옛	-12.8454
얻	-12.8455
숭	-12.8456
렵	-12.8457
갖	-12.8458
튜	-12.8459
즉	-12.846
잼	-12.8461
썅	-12.8462
밌	-12.8463
탱	-12.8464
앉	-12.8465
섹	-12.8466
뚜	-12.8467
걱	-12.8468
핵	-12.8469
팬	-12.847
튀	-12.8471
젊	-12.8472
랬	-12.8473
떤	-12.8474
뒷	-12.8475
뛰	-12.8476
윤	-12.8477
섭	-12.8478
벽	-12.8479
괜	-12.848
훨	-12.8481
슷	-12.8482
싫	-12.8483
쟤	-12.8484
븅	-12.8485
쁜	-12.8486
찮	-12.8487
쟁	-12.8488
앙	-12.8489
팩	-12.849
랜	-12.8491
@	-12.8492
찐	-12.8493
험	-12.8494
럽	-12.8495
갱	-12.8496
완	-12.8497
딴	-12.8498
믿	-12.8499
댓	-12.85
얘	-12.8501
몰	-12.8502
ᄐ	-12.8503
좌	-12.8504
봤	-12.8505
닌	-12.8506
죽	-12.8507
뒤	-12.8508
럼	-12.8509
렇	-12.851
많	-12.8511
있	-12.8512
